#include "ul_model_data.h"

extern "C" {

const unsigned char model_tflite[] __attribute__((section(".rodata"))) = {
  0x20, 0x00, 0x00, 0x00, 0x54, 0x46, 0x4c, 0x33, 0x00, 0x00, 0x00, 0x00,
  0x14, 0x00, 0x20, 0x00, 0x1c, 0x00, 0x18, 0x00, 0x14, 0x00, 0x10, 0x00,
  0x0c, 0x00, 0x00, 0x00, 0x08, 0x00, 0x04, 0x00, 0x14, 0x00, 0x00, 0x00,
  0x1c, 0x00, 0x00, 0x00, 0x80, 0x00, 0x00, 0x00, 0xd8, 0x00, 0x00, 0x00,
  0x10, 0x2f, 0x00, 0x00, 0x20, 0x2f, 0x00, 0x00, 0x28, 0x4e, 0x00, 0x00,
  0x03, 0x00, 0x00, 0x00, 0x01, 0x00, 0x00, 0x00, 0x04, 0x00, 0x00, 0x00,
  0xea, 0xce, 0xff, 0xff, 0x0c, 0x00, 0x00, 0x00, 0x1c, 0x00, 0x00, 0x00,
  0x38, 0x00, 0x00, 0x00, 0x0f, 0x00, 0x00, 0x00, 0x73, 0x65, 0x72, 0x76,
  0x69, 0x6e, 0x67, 0x5f, 0x64, 0x65, 0x66, 0x61, 0x75, 0x6c, 0x74, 0x00,
  0x01, 0x00, 0x00, 0x00, 0x04, 0x00, 0x00, 0x00, 0x9c, 0xff, 0xff, 0xff,
  0x1c, 0x00, 0x00, 0x00, 0x04, 0x00, 0x00, 0x00, 0x07, 0x00, 0x00, 0x00,
  0x64, 0x65, 0x6e, 0x73, 0x65, 0x5f, 0x31, 0x00, 0x01, 0x00, 0x00, 0x00,
  0x04, 0x00, 0x00, 0x00, 0x92, 0xd0, 0xff, 0xff, 0x04, 0x00, 0x00, 0x00,
  0x07, 0x00, 0x00, 0x00, 0x69, 0x6e, 0x70, 0x75, 0x74, 0x5f, 0x31, 0x00,
  0x02, 0x00, 0x00, 0x00, 0x34, 0x00, 0x00, 0x00, 0x04, 0x00, 0x00, 0x00,
  0xdc, 0xff, 0xff, 0xff, 0x1f, 0x00, 0x00, 0x00, 0x04, 0x00, 0x00, 0x00,
  0x13, 0x00, 0x00, 0x00, 0x43, 0x4f, 0x4e, 0x56, 0x45, 0x52, 0x53, 0x49,
  0x4f, 0x4e, 0x5f, 0x4d, 0x45, 0x54, 0x41, 0x44, 0x41, 0x54, 0x41, 0x00,
  0x08, 0x00, 0x0c, 0x00, 0x08, 0x00, 0x04, 0x00, 0x08, 0x00, 0x00, 0x00,
  0x1e, 0x00, 0x00, 0x00, 0x04, 0x00, 0x00, 0x00, 0x13, 0x00, 0x00, 0x00,
  0x6d, 0x69, 0x6e, 0x5f, 0x72, 0x75, 0x6e, 0x74, 0x69, 0x6d, 0x65, 0x5f,
  0x76, 0x65, 0x72, 0x73, 0x69, 0x6f, 0x6e, 0x00, 0x20, 0x00, 0x00, 0x00,
  0x34, 0x2e, 0x00, 0x00, 0x2c, 0x2e, 0x00, 0x00, 0x18, 0x2e, 0x00, 0x00,
  0xfc, 0x2d, 0x00, 0x00, 0xe0, 0x2d, 0x00, 0x00, 0xcc, 0x2d, 0x00, 0x00,
  0xac, 0x2d, 0x00, 0x00, 0x9c, 0x2c, 0x00, 0x00, 0x8c, 0x2b, 0x00, 0x00,
  0x7c, 0x1b, 0x00, 0x00, 0x6c, 0x1a, 0x00, 0x00, 0x5c, 0x02, 0x00, 0x00,
  0x2c, 0x02, 0x00, 0x00, 0xfc, 0x01, 0x00, 0x00, 0x6c, 0x01, 0x00, 0x00,
  0xfc, 0x00, 0x00, 0x00, 0xf4, 0x00, 0x00, 0x00, 0xec, 0x00, 0x00, 0x00,
  0xe4, 0x00, 0x00, 0x00, 0xdc, 0x00, 0x00, 0x00, 0xd4, 0x00, 0x00, 0x00,
  0xcc, 0x00, 0x00, 0x00, 0xc4, 0x00, 0x00, 0x00, 0xbc, 0x00, 0x00, 0x00,
  0xb4, 0x00, 0x00, 0x00, 0xac, 0x00, 0x00, 0x00, 0xa4, 0x00, 0x00, 0x00,
  0x9c, 0x00, 0x00, 0x00, 0x94, 0x00, 0x00, 0x00, 0x8c, 0x00, 0x00, 0x00,
  0x6c, 0x00, 0x00, 0x00, 0x04, 0x00, 0x00, 0x00, 0x86, 0xd1, 0xff, 0xff,
  0x04, 0x00, 0x00, 0x00, 0x58, 0x00, 0x00, 0x00, 0x0c, 0x00, 0x00, 0x00,
  0x08, 0x00, 0x0e, 0x00, 0x08, 0x00, 0x04, 0x00, 0x08, 0x00, 0x00, 0x00,
  0x10, 0x00, 0x00, 0x00, 0x28, 0x00, 0x00, 0x00, 0x00, 0x00, 0x06, 0x00,
  0x08, 0x00, 0x04, 0x00, 0x06, 0x00, 0x00, 0x00, 0x04, 0x00, 0x00, 0x00,
  0x01, 0x00, 0x00, 0x00, 0xeb, 0x03, 0x00, 0x00, 0x00, 0x00, 0x0a, 0x00,
  0x10, 0x00, 0x0c, 0x00, 0x08, 0x00, 0x04, 0x00, 0x0a, 0x00, 0x00, 0x00,
  0x02, 0x00, 0x00, 0x00, 0x02, 0x00, 0x00, 0x00, 0x04, 0x00, 0x00, 0x00,
  0x06, 0x00, 0x00, 0x00, 0x32, 0x2e, 0x31, 0x33, 0x2e, 0x30, 0x00, 0x00,
  0xea, 0xd1, 0xff, 0xff, 0x04, 0x00, 0x00, 0x00, 0x10, 0x00, 0x00, 0x00,
  0x31, 0x2e, 0x31, 0x34, 0x2e, 0x30, 0x00, 0x00, 0x00, 0x00, 0x00, 0x00,
  0x00, 0x00, 0x00, 0x00, 0x84, 0xb4, 0xff, 0xff, 0x88, 0xb4, 0xff, 0xff,
  0x8c, 0xb4, 0xff, 0xff, 0x90, 0xb4, 0xff, 0xff, 0x94, 0xb4, 0xff, 0xff,
  0x98, 0xb4, 0xff, 0xff, 0x9c, 0xb4, 0xff, 0xff, 0xa0, 0xb4, 0xff, 0xff,
  0xa4, 0xb4, 0xff, 0xff, 0xa8, 0xb4, 0xff, 0xff, 0xac, 0xb4, 0xff, 0xff,
  0xb0, 0xb4, 0xff, 0xff, 0xb4, 0xb4, 0xff, 0xff, 0xb8, 0xb4, 0xff, 0xff,
  0x3e, 0xd2, 0xff, 0xff, 0x04, 0x00, 0x00, 0x00, 0x60, 0x00, 0x00, 0x00,
  0x7f, 0x20, 0xd6, 0x7f, 0x46, 0xe2, 0x81, 0xfc, 0x63, 0x81, 0xd3, 0x09,
  0x92, 0x1c, 0x7f, 0xac, 0xea, 0x81, 0x6d, 0x7f, 0x15, 0x0f, 0x81, 0xd0,
  0x81, 0xf5, 0xed, 0x7f, 0x12, 0x6f, 0xe6, 0x81, 0xa8, 0x8a, 0xc3, 0x7f,
  0x81, 0x1f, 0xd1, 0xf7, 0x81, 0x9a, 0xdc, 0x81, 0xb0, 0x0d, 0x0d, 0x81,
  0x81, 0xe4, 0xd8, 0x81, 0xfa, 0x1a, 0xc8, 0xb9, 0x81, 0x0c, 0x2d, 0x7f,
  0x43, 0xed, 0x81, 0x7f, 0x8c, 0xe2, 0x48, 0xe3, 0x81, 0x32, 0x03, 0x81,
  0x81, 0x28, 0x8c, 0x4a, 0x81, 0xae, 0x45, 0x7f, 0x49, 0x7f, 0x99, 0x25,
  0xa9, 0x81, 0x44, 0x81, 0x77, 0xe2, 0xb3, 0x7f, 0x9f, 0x81, 0xb2, 0x3f,
  0xaa, 0xd2, 0xff, 0xff, 0x04, 0x00, 0x00, 0x00, 0x80, 0x00, 0x00, 0x00,
  0x95, 0xff, 0xff, 0xff, 0xfd, 0xff, 0xff, 0xff, 0xc1, 0x00, 0x00, 0x00,
  0x41, 0x06, 0x00, 0x00, 0xf4, 0x00, 0x00, 0x00, 0x00, 0x00, 0x00, 0x00,
  0x8c, 0x00, 0x00, 0x00, 0x09, 0x03, 0x00, 0x00, 0x00, 0x00, 0x00, 0x00,
  0xf5, 0xff, 0xff, 0xff, 0x00, 0x00, 0x00, 0x00, 0xef, 0x02, 0x00, 0x00,
  0xc2, 0xfe, 0xff, 0xff, 0x00, 0x00, 0x00, 0x00, 0x00, 0x00, 0x00, 0x00,
  0x2c, 0x03, 0x00, 0x00, 0x00, 0x00, 0x00, 0x00, 0x01, 0x02, 0x00, 0x00,
  0x00, 0x00, 0x00, 0x00, 0xff, 0xff, 0xff, 0xff, 0x45, 0x02, 0x00, 0x00,
  0xf6, 0x01, 0x00, 0x00, 0x06, 0x03, 0x00, 0x00, 0xd3, 0xff, 0xff, 0xff,
  0xbf, 0xfe, 0xff, 0xff, 0xe4, 0x03, 0x00, 0x00, 0x0d, 0x00, 0x00, 0x00,
  0x89, 0xfd, 0xff, 0xff, 0xaa, 0x05, 0x00, 0x00, 0xcf, 0x02, 0x00, 0x00,
  0xc8, 0xff, 0xff, 0xff, 0x6d, 0x03, 0x00, 0x00, 0x36, 0xd3, 0xff, 0xff,
  0x04, 0x00, 0x00, 0x00, 0x20, 0x00, 0x00, 0x00, 0xe2, 0xcb, 0x20, 0x7f,
  0x01, 0x5f, 0xd0, 0x79, 0x5f, 0xbe, 0x5f, 0x2a, 0x72, 0x5f, 0x5f, 0x6e,
  0x5f, 0x70, 0x5f, 0xd3, 0x66, 0x43, 0x54, 0x47, 0x70, 0x60, 0xb3, 0x16,
  0x6b, 0x34, 0x3a, 0x6b, 0x62, 0xd3, 0xff, 0xff, 0x04, 0x00, 0x00, 0x00,
  0x20, 0x00, 0x00, 0x00, 0xad, 0x8a, 0x2b, 0x61, 0xd9, 0x7e, 0x80, 0x63,
  0x7f, 0x8b, 0x7b, 0x3d, 0x6a, 0x5d, 0x69, 0x55, 0x6a, 0x56, 0x7d, 0x96,
  0x40, 0x45, 0x45, 0x42, 0x70, 0x4a, 0x83, 0xde, 0x4d, 0x39, 0x48, 0x5b,
  0x8e, 0xd3, 0xff, 0xff, 0x04, 0x00, 0x00, 0x00, 0x00, 0x18, 0x00, 0x00,
  0x1d, 0x54, 0xe5, 0xa1, 0xd7, 0xbb, 0x5a, 0x60, 0xa8, 0xea, 0xc6, 0x51,
  0x33, 0x44, 0xe4, 0x26, 0x29, 0x46, 0x97, 0x54, 0x14, 0x60, 0xf4, 0x39,
  0x60, 0x67, 0xa1, 0x63, 0x03, 0xc6, 0x65, 0x9b, 0xee, 0x22, 0xf4, 0xef,
  0x00, 0x1f, 0x52, 0xf5, 0x1b, 0xc2, 0xd3, 0xdc, 0x6e, 0x2e, 0x55, 0x02,
  0xe9, 0x3c, 0x0c, 0x4c, 0x13, 0xe9, 0x2e, 0x7f, 0x6d, 0xdd, 0x22, 0x44,
  0x3d, 0x6e, 0xe8, 0x10, 0xc0, 0x04, 0x96, 0xf8, 0xd4, 0xcb, 0x46, 0x51,
  0x1c, 0xd8, 0x26, 0xd0, 0x0e, 0xee, 0xff, 0x17, 0x72, 0x96, 0x1c, 0xba,
  0xf2, 0x45, 0xe8, 0xe5, 0x41, 0xce, 0xb5, 0xf4, 0xee, 0x29, 0xc3, 0x17,
  0x5a, 0x00, 0xca, 0x39, 0x27, 0xff, 0x3f, 0xd3, 0x43, 0xdd, 0x0c, 0xcb,
  0x97, 0xcd, 0xd6, 0x29, 0xfd, 0x57, 0xe0, 0xc2, 0xe8, 0x18, 0xf5, 0x3d,
  0xc9, 0xf9, 0x44, 0xc3, 0x92, 0xf2, 0x37, 0x86, 0xb0, 0x5f, 0x13, 0xca,
  0x17, 0xa1, 0x71, 0xaa, 0x9e, 0xc8, 0xfd, 0xbf, 0x42, 0x29, 0x40, 0x1e,
  0xb4, 0x41, 0x91, 0x64, 0xf3, 0x36, 0xa0, 0xf7, 0x5e, 0x06, 0x58, 0x5b,
  0x7d, 0x24, 0x00, 0x70, 0x03, 0x34, 0x77, 0xae, 0x79, 0x00, 0x4e, 0xef,
  0xa9, 0x1f, 0xcc, 0x79, 0xb1, 0x5e, 0x35, 0x1c, 0x1b, 0x02, 0x9e, 0xe2,
  0x85, 0x48, 0x81, 0xa8, 0xf7, 0xb3, 0xde, 0xc8, 0x06, 0x17, 0xd7, 0x1a,
  0xf1, 0xba, 0x03, 0x4a, 0xf5, 0xa8, 0x4c, 0x3a, 0x1b, 0xb5, 0xd2, 0x28,
  0x21, 0xee, 0xd2, 0xda, 0x22, 0x4f, 0x56, 0xd6, 0x1d, 0xa0, 0xb8, 0xa4,
  0xac, 0x14, 0x17, 0xe5, 0x28, 0xa0, 0xab, 0xbc, 0x69, 0x0f, 0xce, 0xf6,
  0xc2, 0x43, 0xbb, 0xdd, 0xd2, 0xff, 0x01, 0xc0, 0xd5, 0x3b, 0x0a, 0x08,
  0x0e, 0x1b, 0x0f, 0xf1, 0x5e, 0xeb, 0x4f, 0x78, 0x41, 0xae, 0x19, 0xdf,
  0x5d, 0xee, 0x5c, 0xc6, 0x0b, 0x01, 0xc7, 0x11, 0x20, 0xbf, 0xe5, 0x7f,
  0x1f, 0xd3, 0x09, 0x46, 0xf8, 0xe7, 0x1e, 0xf1, 0xe6, 0x4c, 0x1d, 0x50,
  0xea, 0x0d, 0xee, 0x5f, 0x46, 0x74, 0xfd, 0x4e, 0xdd, 0x3b, 0xaa, 0x22,
  0x03, 0x33, 0x43, 0x63, 0x31, 0x4a, 0x1c, 0x52, 0x39, 0x3c, 0x10, 0xa7,
  0xb0, 0xb0, 0x36, 0xdb, 0x19, 0xdf, 0xd0, 0x39, 0x7f, 0x00, 0xfe, 0x7a,
  0xd4, 0x16, 0xcd, 0xc4, 0x3d, 0x0d, 0x0c, 0xc9, 0xd4, 0xb4, 0x1a, 0x5e,
  0x00, 0x22, 0x31, 0x09, 0x08, 0x3c, 0xac, 0xab, 0x12, 0x0c, 0x1b, 0x39,
  0xaa, 0xd9, 0xba, 0x00, 0x3c, 0xec, 0x1b, 0x1a, 0x31, 0xed, 0xff, 0x3a,
  0xeb, 0xba, 0x0d, 0xaa, 0xe7, 0xf7, 0xb4, 0x54, 0xad, 0x4b, 0xbf, 0xd8,
  0xf7, 0xb0, 0x23, 0xe8, 0xe3, 0xb6, 0xdd, 0x5a, 0x4e, 0xdc, 0xe4, 0x13,
  0xbe, 0xc7, 0xf2, 0x28, 0x11, 0x35, 0xe9, 0xf7, 0xd6, 0x35, 0xb5, 0xbb,
  0x2f, 0xa4, 0xb2, 0x1e, 0xd7, 0xb5, 0x53, 0x6d, 0xe7, 0xf5, 0xe9, 0xe8,
  0xb6, 0xb0, 0x0c, 0x44, 0xeb, 0x17, 0x5d, 0x12, 0x6c, 0x7f, 0x50, 0x03,
  0xa9, 0xff, 0x29, 0x52, 0x9b, 0xed, 0xf7, 0xc8, 0xe3, 0x44, 0xb5, 0xe2,
  0x0d, 0x9a, 0xc4, 0x5c, 0xe3, 0x1f, 0x4e, 0x3d, 0x42, 0x18, 0x17, 0x73,
  0xdc, 0x08, 0x0c, 0xa1, 0x37, 0xfb, 0x2c, 0xf0, 0xd9, 0x7c, 0x3c, 0x51,
  0x3a, 0xe3, 0x36, 0x08, 0xcc, 0xbd, 0x8a, 0x14, 0xf9, 0xda, 0xc6, 0x1b,
  0xa6, 0x26, 0x07, 0xaf, 0xdf, 0x22, 0x11, 0x34, 0x5e, 0x2e, 0xb0, 0xfc,
  0x10, 0xee, 0x09, 0xb6, 0x17, 0x2e, 0x39, 0x43, 0x10, 0xb1, 0xde, 0x3a,
  0x17, 0x21, 0xb8, 0x46, 0x88, 0xea, 0xea, 0xd6, 0xc6, 0xac, 0x7c, 0xc1,
  0x5d, 0x47, 0x28, 0x1e, 0xb2, 0x23, 0xad, 0x9a, 0xcc, 0x2e, 0x23, 0xd7,
  0xf3, 0x8e, 0xf5, 0x58, 0x00, 0x60, 0x40, 0xd1, 0xc7, 0xa1, 0x8b, 0xc8,
  0x5c, 0x08, 0xce, 0xd9, 0xb7, 0x29, 0x35, 0xe7, 0x13, 0xd1, 0xcc, 0x03,
  0xdd, 0x86, 0xf8, 0x3d, 0xb0, 0x84, 0xa4, 0xc7, 0x2a, 0x34, 0x1a, 0xdc,
  0x1b, 0x33, 0xf1, 0xae, 0xc5, 0xcb, 0x4c, 0xda, 0x24, 0x73, 0x2c, 0x8f,
  0x5b, 0x5e, 0x6c, 0x29, 0x16, 0x9e, 0x0d, 0x6b, 0xf3, 0x0d, 0x36, 0xdb,
  0x49, 0xdd, 0x81, 0x4e, 0xf3, 0x14, 0x07, 0x36, 0xb1, 0xa9, 0xec, 0x38,
  0xd0, 0x21, 0xf2, 0xdc, 0xb2, 0x1a, 0x2a, 0x7f, 0x0c, 0x20, 0x53, 0x22,
  0xce, 0xbe, 0x44, 0x12, 0x33, 0x12, 0xc3, 0xcd, 0xe7, 0x61, 0x2b, 0x59,
  0xa7, 0xe8, 0x01, 0x66, 0x41, 0xe1, 0x49, 0xdf, 0x9f, 0x17, 0xfb, 0x62,
  0xf4, 0x1f, 0x07, 0xeb, 0xbd, 0x2d, 0x01, 0x44, 0x08, 0xdf, 0x1e, 0x22,
  0xdd, 0x13, 0x05, 0xdf, 0xd1, 0x36, 0x1d, 0xb6, 0xbb, 0xbf, 0x40, 0xb6,
  0x40, 0xee, 0x00, 0xd5, 0x3f, 0xbb, 0xea, 0x3f, 0x54, 0x2a, 0x13, 0xe2,
  0xc2, 0xb3, 0x25, 0x2c, 0xd5, 0x42, 0x1f, 0xce, 0xdd, 0xec, 0xc5, 0x10,
  0x5b, 0x16, 0xc6, 0xf8, 0xe8, 0x16, 0xa6, 0x31, 0xf0, 0xe9, 0x20, 0xcb,
  0xf7, 0x1f, 0x25, 0x26, 0xdd, 0xdb, 0x33, 0xe0, 0x9e, 0x1a, 0xfb, 0x3e,
  0xd2, 0xf5, 0x9d, 0x3d, 0xc9, 0x60, 0xe7, 0xc1, 0x22, 0x09, 0xf0, 0x16,
  0x4d, 0x2d, 0xe4, 0xd7, 0xac, 0xb6, 0x1c, 0x62, 0x6a, 0x14, 0xb9, 0x5a,
  0x32, 0x0d, 0x78, 0x94, 0x4f, 0x75, 0x8e, 0xca, 0x47, 0x2a, 0x20, 0xf5,
  0x0f, 0x6a, 0x3f, 0xa1, 0xb1, 0x29, 0xc6, 0xef, 0x94, 0xe4, 0x17, 0x42,
  0x2e, 0x48, 0x2d, 0x6c, 0x3a, 0xce, 0x7c, 0x8f, 0x1a, 0xf4, 0xdf, 0x94,
  0x02, 0xd8, 0x8f, 0xc2, 0x53, 0x35, 0x4e, 0x84, 0x5a, 0x7f, 0x4c, 0x3c,
  0x16, 0x4d, 0x99, 0x48, 0xe5, 0xcb, 0x78, 0x38, 0x02, 0x74, 0x38, 0x9d,
  0x19, 0x54, 0x3f, 0x1f, 0x35, 0xcb, 0xc5, 0x17, 0xca, 0x0f, 0xab, 0x6c,
  0xf8, 0x32, 0x3f, 0x4f, 0xc3, 0x6b, 0x1c, 0xec, 0x7f, 0x70, 0xcf, 0x5f,
  0x05, 0x1f, 0x57, 0xe4, 0x61, 0x73, 0x76, 0x65, 0x31, 0xdf, 0xc2, 0x2e,
  0x65, 0xf6, 0x62, 0x45, 0x64, 0x39, 0x4c, 0xc5, 0x24, 0x08, 0xa4, 0x4b,
  0x8d, 0x11, 0xbf, 0xcc, 0xf7, 0xc9, 0x11, 0x30, 0x29, 0x08, 0x3a, 0x2c,
  0x39, 0x61, 0xe0, 0x0a, 0xf7, 0xf7, 0x52, 0xb8, 0x3a, 0x4b, 0x4e, 0x4d,
  0x27, 0x53, 0xad, 0x28, 0x8f, 0x10, 0x21, 0x02, 0xcf, 0x62, 0x5b, 0xb1,
  0xe2, 0x54, 0x69, 0xd2, 0xf6, 0xf5, 0xcc, 0x51, 0xbb, 0xd4, 0x0b, 0xa9,
  0x14, 0x12, 0xc3, 0x0e, 0x64, 0xc4, 0x2d, 0xaf, 0x54, 0x9d, 0x20, 0x4c,
  0xda, 0xe4, 0x3d, 0xd7, 0x3d, 0x39, 0x19, 0xf8, 0xb7, 0x1a, 0x8d, 0x1f,
  0xc2, 0x2d, 0x95, 0xae, 0x2c, 0xc9, 0x08, 0x51, 0x43, 0x2c, 0xe0, 0x0d,
  0x13, 0x50, 0xbe, 0xfd, 0xbc, 0x17, 0xcd, 0xe3, 0xb2, 0xcd, 0x11, 0xce,
  0x96, 0xda, 0x0f, 0x01, 0xbc, 0xb6, 0xec, 0xcb, 0xcf, 0x81, 0xf2, 0x37,
  0xbc, 0xbd, 0x23, 0x1e, 0xa3, 0xbf, 0x4a, 0x32, 0x96, 0x4e, 0x49, 0x6d,
  0xe4, 0x1e, 0x0b, 0x35, 0x48, 0x13, 0x1d, 0x77, 0x0d, 0xf6, 0x6e, 0x48,
  0x23, 0xc7, 0x6d, 0x4c, 0xcd, 0x4a, 0xc4, 0x4e, 0xdd, 0xa1, 0x5d, 0x5a,
  0xe1, 0x0b, 0x02, 0x44, 0xb5, 0xab, 0x0e, 0xd6, 0x34, 0xd8, 0xeb, 0xbe,
  0xe0, 0xcd, 0x21, 0x4b, 0x2c, 0xa2, 0xdf, 0xcf, 0xb6, 0x41, 0x34, 0xbc,
  0xb7, 0xda, 0xbe, 0xe4, 0x20, 0xf5, 0x28, 0xc5, 0xd3, 0xae, 0xec, 0x7f,
  0xe0, 0xbb, 0x1a, 0xf7, 0xe6, 0xed, 0xf3, 0x2c, 0x97, 0x19, 0xf0, 0xf4,
  0xee, 0x17, 0x45, 0x21, 0x41, 0xdf, 0x64, 0xe1, 0x48, 0x51, 0xd4, 0xae,
  0x0f, 0xa5, 0x50, 0x18, 0xa8, 0x2f, 0x29, 0x67, 0x1c, 0xd7, 0x3d, 0x5c,
  0xee, 0x17, 0xcf, 0x34, 0x1a, 0x02, 0x03, 0x42, 0x3a, 0x70, 0xbf, 0x23,
  0xeb, 0x43, 0x5c, 0xd4, 0x3b, 0x45, 0xa6, 0xe5, 0x04, 0x10, 0xad, 0x44,
  0x3b, 0xbb, 0x78, 0x2e, 0x57, 0x9a, 0xca, 0x65, 0xdf, 0xcb, 0x07, 0xf2,
  0xa4, 0x2b, 0x25, 0x16, 0x30, 0x5f, 0x5d, 0xe6, 0xe6, 0x63, 0x2e, 0xcb,
  0x53, 0xeb, 0xed, 0xae, 0xef, 0x4c, 0xba, 0x10, 0x92, 0x97, 0xb8, 0x03,
  0x7f, 0x0a, 0xe3, 0xe1, 0xdf, 0xfc, 0x31, 0xe3, 0xba, 0xe2, 0x48, 0x28,
  0x06, 0x1d, 0x15, 0xb2, 0xa6, 0x95, 0xc0, 0xa0, 0xca, 0xb8, 0x0d, 0xab,
  0x41, 0x0c, 0xa1, 0xde, 0x61, 0xd8, 0x37, 0x60, 0xc6, 0xe7, 0x20, 0x59,
  0xbe, 0x44, 0xf0, 0xc5, 0xde, 0xd4, 0x22, 0x3c, 0xfc, 0x79, 0x12, 0x74,
  0xe5, 0xba, 0x0a, 0xc2, 0xbe, 0xda, 0x65, 0x26, 0x34, 0xae, 0x9d, 0xf8,
  0xbe, 0x23, 0x40, 0xdf, 0x54, 0x66, 0x33, 0x8e, 0xda, 0xd9, 0xc4, 0x2d,
  0xb7, 0x22, 0xcc, 0xda, 0x06, 0x50, 0x69, 0x40, 0x3d, 0x01, 0xf1, 0x46,
  0x01, 0x2b, 0x0e, 0x49, 0xf8, 0x4d, 0x05, 0xef, 0x5b, 0x4f, 0x7f, 0x0d,
  0x52, 0xf4, 0x1a, 0x36, 0x40, 0xf7, 0x3c, 0x79, 0x2c, 0x4a, 0xae, 0x2c,
  0xc6, 0x5e, 0xeb, 0xed, 0x12, 0x9f, 0xb7, 0x20, 0x14, 0x0a, 0x32, 0xd7,
  0x7c, 0xa4, 0x0e, 0xee, 0x3f, 0x54, 0xf8, 0x54, 0x63, 0xdd, 0x14, 0xbc,
  0xf2, 0x53, 0x52, 0x60, 0x81, 0xd1, 0x09, 0x11, 0x21, 0x3d, 0x65, 0x7b,
  0x09, 0x14, 0x11, 0x8c, 0x8c, 0x9f, 0xfe, 0x13, 0x49, 0xce, 0x0e, 0x52,
  0x58, 0x53, 0xce, 0xc8, 0x33, 0xd7, 0x02, 0xa5, 0x56, 0xe1, 0x6b, 0xe8,
  0x7f, 0xd9, 0xfd, 0x09, 0xa7, 0x21, 0xcd, 0xc6, 0xb0, 0x25, 0x47, 0x94,
  0xdd, 0xe6, 0x9f, 0x20, 0xfc, 0x3d, 0x64, 0x41, 0xca, 0xe9, 0xcf, 0x29,
  0xd5, 0xd8, 0x58, 0x55, 0xb3, 0x2f, 0x11, 0xc4, 0x77, 0xb9, 0xec, 0x13,
  0x21, 0x07, 0x7c, 0x61, 0xa4, 0x42, 0x11, 0x4d, 0xd5, 0x0d, 0x96, 0xb2,
  0x5e, 0x4b, 0x63, 0xf6, 0xc5, 0x53, 0xde, 0xce, 0xf3, 0x00, 0xa8, 0x66,
  0x0f, 0x44, 0x2b, 0x33, 0xb6, 0x8d, 0xf0, 0x2b, 0xe6, 0x68, 0x37, 0x4a,
  0xf0, 0xe4, 0xc1, 0x15, 0x61, 0xf6, 0x61, 0x54, 0xfd, 0xd5, 0x70, 0x5b,
  0xfd, 0xfc, 0x53, 0x1e, 0x19, 0x46, 0x16, 0x21, 0x97, 0x59, 0x12, 0x5a,
  0x0b, 0x47, 0x31, 0xc8, 0x54, 0x40, 0x81, 0x1b, 0x6c, 0x49, 0x5b, 0x13,
  0x9b, 0x54, 0xa2, 0xfd, 0x84, 0x21, 0x2e, 0x0c, 0x64, 0xac, 0xea, 0x3d,
  0x8a, 0x21, 0x18, 0xe9, 0xaa, 0x5c, 0x96, 0x90, 0x11, 0x6f, 0xc2, 0xb2,
  0x26, 0xca, 0x00, 0x2b, 0x51, 0x31, 0xa3, 0xf1, 0x86, 0x5a, 0x3b, 0xf3,
  0x4c, 0xfd, 0x12, 0x93, 0xd5, 0xeb, 0xfb, 0xfa, 0x2a, 0xf9, 0x11, 0x94,
  0xb4, 0x1d, 0x20, 0xab, 0x59, 0x6e, 0x04, 0x4a, 0x0e, 0x36, 0xa7, 0xef,
  0x26, 0xf1, 0x44, 0x5e, 0xf1, 0xe0, 0x99, 0x1d, 0x18, 0xc9, 0xd5, 0xcd,
  0xdc, 0x17, 0x99, 0xee, 0x81, 0xcc, 0xb3, 0xd4, 0x64, 0x45, 0x75, 0x36,
  0xd4, 0x02, 0xff, 0x3c, 0x34, 0xe3, 0xe8, 0xb8, 0x07, 0x83, 0xe7, 0x51,
  0x18, 0x08, 0xd7, 0x57, 0x85, 0xf7, 0x55, 0x9b, 0xf9, 0x46, 0x2e, 0xbc,
  0x32, 0x63, 0x08, 0x6a, 0x17, 0x57, 0x62, 0x96, 0xf3, 0xd7, 0xaa, 0xdf,
  0xbc, 0x53, 0xbf, 0x5b, 0x53, 0xeb, 0x7b, 0x0c, 0x5c, 0xd5, 0xbc, 0x32,
  0x14, 0xb2, 0x05, 0xf4, 0xb3, 0xf0, 0x26, 0x7b, 0x8e, 0xf4, 0x5d, 0x0e,
  0xc7, 0x15, 0x22, 0x2c, 0xb8, 0x0b, 0x56, 0xce, 0x57, 0x09, 0x6a, 0xef,
  0x5e, 0x57, 0x6c, 0x24, 0xbf, 0xb5, 0x9b, 0x2f, 0xc2, 0x2d, 0x08, 0xe8,
  0xc4, 0xfd, 0xf4, 0x0f, 0x3c, 0xa5, 0x3b, 0xac, 0xeb, 0x47, 0xb7, 0xa5,
  0xed, 0x34, 0x36, 0xf2, 0x76, 0xb2, 0x8e, 0x5a, 0x33, 0xf4, 0x52, 0x1b,
  0xfa, 0xd3, 0x65, 0x31, 0x4e, 0xf4, 0x34, 0x34, 0xfc, 0x1f, 0x20, 0x2e,
  0xa3, 0xa4, 0x31, 0x4e, 0x8f, 0x0a, 0xdb, 0xf6, 0x0c, 0x54, 0xc8, 0x4e,
  0x4f, 0x08, 0x2c, 0xc7, 0xce, 0x88, 0x8d, 0x43, 0x88, 0x9e, 0x0d, 0x31,
  0x3f, 0x04, 0x19, 0x7b, 0x05, 0xe0, 0x3e, 0xec, 0x2e, 0x9c, 0x61, 0x09,
  0xc7, 0x54, 0x09, 0xd0, 0xd9, 0x1c, 0x4e, 0x81, 0x51, 0xc8, 0x45, 0x49,
  0x27, 0xdb, 0x1d, 0x04, 0xc7, 0x10, 0x21, 0xdb, 0xb7, 0xf6, 0x28, 0x26,
  0x1c, 0xed, 0xdb, 0x7f, 0xc7, 0xd4, 0xd2, 0x25, 0x34, 0xf9, 0xe0, 0x17,
  0xc6, 0x00, 0xcd, 0x13, 0xe6, 0xe4, 0x11, 0xe0, 0x28, 0xdc, 0x2e, 0x0a,
  0xb7, 0x10, 0xcc, 0xbf, 0xea, 0xf9, 0xc0, 0x38, 0xa8, 0x03, 0x27, 0x5e,
  0x3e, 0x3f, 0xd8, 0x37, 0x3b, 0xbc, 0xdb, 0x53, 0xc3, 0xb9, 0xff, 0x1e,
  0xee, 0x48, 0xe4, 0x27, 0x0b, 0x3f, 0x2e, 0x36, 0x31, 0x50, 0xe3, 0xb7,
  0x3a, 0x03, 0xca, 0x33, 0xee, 0xfe, 0xf0, 0x73, 0xd5, 0x38, 0xc2, 0x25,
  0x1e, 0xe1, 0x21, 0x4d, 0x0e, 0xb1, 0xe0, 0x01, 0xf5, 0xef, 0x04, 0x2d,
  0xe6, 0x36, 0xb4, 0xaf, 0xc7, 0xe2, 0x2e, 0x1b, 0x20, 0x19, 0xc7, 0x38,
  0x0c, 0xc7, 0x97, 0xfe, 0x97, 0x17, 0xab, 0xc6, 0xe2, 0x13, 0x1e, 0xe7,
  0xd2, 0xa2, 0x35, 0xb5, 0x2f, 0x52, 0xa9, 0x0c, 0x0f, 0xf1, 0x56, 0x15,
  0xa2, 0xfe, 0xd5, 0xd1, 0xbb, 0xf8, 0x65, 0x44, 0xe5, 0xa5, 0x1d, 0xf5,
  0x4e, 0xe8, 0xd6, 0x56, 0x06, 0x3e, 0xaf, 0x0e, 0xb6, 0x26, 0xb2, 0x47,
  0xfa, 0x2d, 0x2e, 0xc6, 0x47, 0xc4, 0xc1, 0xf5, 0xef, 0x1e, 0x9c, 0x37,
  0xfa, 0x09, 0x50, 0x0d, 0xa9, 0xa5, 0x15, 0x70, 0x2f, 0x42, 0xe8, 0x42,
  0x0e, 0x0e, 0x3f, 0x7f, 0xf6, 0xa4, 0x02, 0xd3, 0xdd, 0x40, 0x0a, 0xee,
  0x67, 0x3c, 0x02, 0xad, 0xde, 0x03, 0x5d, 0x1b, 0x78, 0x36, 0x10, 0x74,
  0x6a, 0x63, 0x50, 0xcb, 0xe1, 0x2a, 0x50, 0x11, 0x35, 0x4e, 0xe0, 0x40,
  0xb5, 0x11, 0x30, 0x5d, 0xc2, 0xc6, 0xe7, 0xf4, 0x63, 0x7f, 0xed, 0x5e,
  0x03, 0x0d, 0xe4, 0xd1, 0x08, 0xff, 0x31, 0x35, 0xf3, 0x3e, 0x2f, 0xdd,
  0xbd, 0xbf, 0x1f, 0x32, 0x46, 0xde, 0x45, 0x0f, 0x23, 0x16, 0x03, 0x32,
  0x40, 0xf7, 0x1c, 0x49, 0xe8, 0xec, 0x4f, 0x2e, 0x3d, 0x56, 0xfc, 0x37,
  0x08, 0xd5, 0xd8, 0xfc, 0xed, 0xd2, 0x98, 0xe7, 0xed, 0xca, 0xff, 0x38,
  0x35, 0xf3, 0x26, 0xb3, 0xef, 0xed, 0x1c, 0x09, 0x00, 0xad, 0x35, 0xf5,
  0x63, 0x18, 0x45, 0x6d, 0xe1, 0x6e, 0x11, 0xf8, 0xb9, 0x2c, 0x23, 0xe4,
  0x2e, 0x60, 0x08, 0xf7, 0x26, 0x43, 0x5c, 0xe3, 0x3c, 0x52, 0xab, 0xb2,
  0x30, 0x36, 0x58, 0x34, 0x3d, 0x41, 0xe2, 0x49, 0x3b, 0xe3, 0x52, 0x28,
  0x3b, 0x17, 0x06, 0x57, 0x00, 0x3f, 0xef, 0x42, 0xb6, 0x3a, 0x21, 0xe9,
  0x00, 0xba, 0x09, 0x72, 0x16, 0xed, 0xd4, 0x3a, 0xdb, 0xfa, 0xd0, 0x6c,
  0x33, 0xab, 0xd7, 0xdc, 0x48, 0x36, 0x16, 0x70, 0x58, 0x62, 0x20, 0x15,
  0x15, 0xce, 0x4f, 0xf5, 0xd8, 0x0c, 0x97, 0xa4, 0x17, 0xe7, 0xa1, 0x6c,
  0xec, 0xf5, 0x40, 0x81, 0xe7, 0xd0, 0xd4, 0x06, 0xc8, 0xfe, 0xb9, 0xb2,
  0x32, 0x30, 0xd4, 0x1d, 0x27, 0x03, 0xe0, 0xf3, 0xed, 0xc4, 0x2e, 0xec,
  0x7f, 0x39, 0xd5, 0x51, 0x26, 0xac, 0x7c, 0xc0, 0x2a, 0xdf, 0xb1, 0xbc,
  0x1f, 0x4c, 0xb9, 0x14, 0x53, 0x25, 0x33, 0xee, 0xa0, 0xa7, 0x02, 0xdc,
  0x15, 0xd8, 0x0e, 0x1a, 0x44, 0x37, 0xe9, 0x03, 0x0a, 0x5b, 0xac, 0xcc,
  0xff, 0x06, 0x63, 0x15, 0xed, 0xf2, 0x4f, 0xf6, 0xaf, 0xb1, 0xa0, 0xc9,
  0xcd, 0x09, 0xc4, 0xf9, 0x33, 0xb8, 0x46, 0x43, 0x1a, 0xe8, 0xd9, 0x34,
  0xd1, 0x09, 0x3f, 0xde, 0x4b, 0x76, 0x10, 0xed, 0x4c, 0x36, 0x43, 0x9d,
  0x1a, 0x57, 0x0e, 0x09, 0xe7, 0x33, 0xf8, 0x1a, 0xf3, 0xff, 0x42, 0x2b,
  0x98, 0xac, 0x89, 0xaf, 0xa7, 0x10, 0x26, 0x54, 0xfb, 0x34, 0x83, 0x19,
  0xee, 0xdc, 0xb7, 0xec, 0xc0, 0xdc, 0xb3, 0xc6, 0xb6, 0xc4, 0x70, 0x23,
  0xfd, 0x46, 0xa5, 0xa6, 0xa0, 0xb7, 0x53, 0x1f, 0x24, 0xb3, 0x29, 0x43,
  0xef, 0x52, 0x9b, 0x8f, 0xf2, 0x3d, 0xe6, 0x8d, 0x35, 0x19, 0xcc, 0x66,
  0x02, 0x6b, 0x85, 0x30, 0x55, 0x2d, 0xb4, 0x1a, 0xe0, 0xa0, 0x1c, 0x38,
  0x07, 0xb2, 0xd2, 0x36, 0xb8, 0x59, 0x1f, 0xf9, 0xd7, 0xb4, 0x9f, 0xe9,
  0x0b, 0x8e, 0x93, 0x77, 0xdb, 0xa7, 0xb8, 0x30, 0x1b, 0x44, 0xcb, 0x7f,
  0x17, 0x28, 0xdc, 0xd8, 0x7d, 0xe9, 0xbf, 0x02, 0xc1, 0xe7, 0x59, 0xac,
  0xbb, 0xe7, 0x77, 0x2a, 0x3e, 0x14, 0xc7, 0x8a, 0xc7, 0x6e, 0x66, 0x3a,
  0xb3, 0xc6, 0xc4, 0x81, 0xb0, 0xf2, 0xd4, 0x9d, 0x30, 0xe5, 0x44, 0x11,
  0xfd, 0xf2, 0x0b, 0x84, 0xed, 0xf1, 0xd5, 0x07, 0x1a, 0x43, 0xe1, 0xab,
  0x4b, 0xa0, 0x4e, 0xc4, 0x0a, 0x12, 0x98, 0x12, 0xdd, 0xed, 0x9f, 0x8e,
  0x11, 0xfe, 0xad, 0xe0, 0xf2, 0x3a, 0x42, 0xbc, 0x69, 0xf1, 0xec, 0xcf,
  0x22, 0x98, 0x5d, 0x36, 0xa5, 0xfd, 0xe7, 0x17, 0x5d, 0x05, 0xc2, 0xae,
  0x99, 0xf5, 0x2f, 0xff, 0x02, 0xae, 0xbc, 0xfa, 0xc5, 0xe5, 0xdb, 0xfe,
  0xd9, 0xd2, 0x43, 0xa5, 0x0f, 0xaa, 0x10, 0xbf, 0xdc, 0xd1, 0x55, 0x30,
  0x03, 0xd7, 0xc9, 0xcc, 0xd7, 0x01, 0x12, 0x2f, 0xfa, 0xd9, 0x3e, 0x9b,
  0x45, 0xe1, 0xd7, 0xef, 0xdf, 0x33, 0x2a, 0x38, 0x3f, 0xc5, 0x60, 0x8e,
  0x7f, 0xfa, 0xad, 0x1a, 0x3e, 0xfc, 0x5a, 0x05, 0x01, 0x02, 0xbb, 0xa5,
  0x40, 0xc4, 0x4a, 0xb2, 0x1e, 0x21, 0xae, 0x9f, 0xec, 0xf8, 0x3f, 0xb7,
  0x2a, 0xd2, 0x3b, 0xfc, 0x5c, 0xe7, 0x0a, 0xc0, 0x03, 0x0c, 0xf1, 0x26,
  0xae, 0xfe, 0xf2, 0x15, 0xe0, 0x15, 0xc9, 0xe1, 0xec, 0x4d, 0x1c, 0x05,
  0x02, 0xd8, 0x10, 0x01, 0xad, 0x32, 0x32, 0xdf, 0xb6, 0xf1, 0x4b, 0xad,
  0x14, 0x10, 0x34, 0x3d, 0x51, 0xa9, 0xbf, 0x10, 0xf0, 0xc7, 0x4c, 0xe0,
  0xa9, 0x0d, 0xa9, 0xe2, 0xd9, 0xf2, 0xef, 0xd6, 0xb0, 0x95, 0x8c, 0xae,
  0x2b, 0xce, 0x3a, 0xe0, 0x6f, 0xee, 0x6c, 0xb2, 0x59, 0xb1, 0xd0, 0xd3,
  0x81, 0xd0, 0x35, 0x15, 0x2f, 0xba, 0xd1, 0xa9, 0xf6, 0xf3, 0x6b, 0x57,
  0x0b, 0x92, 0x4d, 0xb8, 0x39, 0x55, 0x14, 0x06, 0x01, 0x71, 0xa5, 0x6a,
  0xfb, 0xed, 0x26, 0x17, 0xe1, 0xcc, 0x1f, 0xf1, 0x26, 0xa5, 0x42, 0x4c,
  0x99, 0xdf, 0x5f, 0xd2, 0xd8, 0x56, 0x40, 0xeb, 0x42, 0x0a, 0x0a, 0x68,
  0x2d, 0x48, 0xaf, 0x2f, 0x3b, 0xdc, 0x92, 0x20, 0xb3, 0x5d, 0x21, 0x58,
  0x55, 0xdc, 0x1b, 0x9f, 0x39, 0xcb, 0x55, 0xdc, 0xdd, 0xa8, 0x25, 0xfb,
  0x4a, 0x15, 0x13, 0x1c, 0x37, 0x07, 0x16, 0x1a, 0x9a, 0x23, 0xdd, 0x2f,
  0x64, 0x27, 0x61, 0x60, 0x00, 0x99, 0x5f, 0xe0, 0x11, 0x25, 0x3b, 0x62,
  0xe7, 0x36, 0xd8, 0x75, 0xaf, 0xda, 0x36, 0xa2, 0x45, 0x46, 0xc6, 0x53,
  0x17, 0x1e, 0x27, 0xf2, 0x3c, 0x50, 0xaa, 0xea, 0xd2, 0xbd, 0x05, 0xd5,
  0x00, 0xf8, 0xea, 0x62, 0xd8, 0xd3, 0x43, 0xce, 0xa2, 0x03, 0xf2, 0xe1,
  0xff, 0x20, 0xf3, 0x97, 0xf3, 0x26, 0x16, 0x1c, 0xe0, 0xa3, 0x6a, 0xe3,
  0x2b, 0x1a, 0xf1, 0xba, 0x35, 0x20, 0x3d, 0x04, 0x12, 0xe2, 0x17, 0x00,
  0x4d, 0x3f, 0x2c, 0x33, 0xfa, 0x5c, 0x4f, 0x77, 0x4d, 0x0c, 0xaa, 0x46,
  0x66, 0xcf, 0x7f, 0xd2, 0x04, 0xba, 0x28, 0x61, 0x36, 0xbf, 0x30, 0xc6,
  0xa4, 0xbd, 0x2b, 0x55, 0x41, 0xd2, 0xbf, 0xee, 0xd3, 0xbd, 0xcf, 0x53,
  0xe3, 0xc1, 0x9e, 0x41, 0xf4, 0x0a, 0xea, 0xab, 0xc0, 0x13, 0x41, 0xb4,
  0x91, 0x04, 0xff, 0x33, 0xa0, 0x4c, 0x2a, 0xb1, 0x9d, 0x8f, 0xca, 0x64,
  0xd2, 0xc2, 0xdc, 0x1c, 0x32, 0xfb, 0x22, 0x42, 0xe2, 0x9f, 0x19, 0x50,
  0x2b, 0x0d, 0x49, 0xbe, 0x52, 0x0a, 0xd3, 0x4f, 0xfb, 0xef, 0x82, 0x0d,
  0x08, 0xc8, 0x4e, 0x7f, 0x1e, 0xcf, 0xfa, 0x24, 0x5f, 0x4a, 0xb7, 0x03,
  0xe5, 0x41, 0xf5, 0x02, 0x20, 0x32, 0xb7, 0xd6, 0x24, 0x77, 0xf2, 0xad,
  0x28, 0xef, 0x28, 0x2d, 0xc2, 0xca, 0x9a, 0xf4, 0x78, 0x03, 0xce, 0xf5,
  0x07, 0x03, 0x52, 0x82, 0xcb, 0x00, 0x0d, 0x1e, 0x23, 0x51, 0xe6, 0xe6,
  0xb9, 0xb8, 0x1a, 0xf5, 0x9f, 0x39, 0xf4, 0x21, 0xc7, 0x22, 0xa3, 0xfe,
  0xb6, 0x90, 0xc7, 0x2f, 0x3f, 0x2a, 0x96, 0xf3, 0x16, 0x55, 0xb9, 0xf1,
  0xc4, 0x62, 0x6d, 0x27, 0x49, 0xe2, 0xb0, 0x3a, 0xfe, 0x85, 0xcc, 0x2a,
  0x81, 0xc3, 0x1f, 0xaf, 0x1a, 0xee, 0x19, 0xd0, 0x37, 0x91, 0xaf, 0xff,
  0x2c, 0xc7, 0x36, 0x51, 0x0e, 0x2b, 0xf7, 0x2d, 0xf2, 0xe8, 0xf1, 0x08,
  0xf2, 0x5d, 0xf5, 0x94, 0xcf, 0x4e, 0xb1, 0xc4, 0x13, 0xf0, 0xe9, 0x26,
  0x93, 0x94, 0x08, 0x23, 0x4c, 0xad, 0x6a, 0x74, 0xd7, 0xae, 0x8b, 0x13,
  0x60, 0x59, 0x3d, 0x9a, 0x9a, 0x3b, 0xe2, 0xeb, 0xda, 0x4a, 0xd6, 0x43,
  0xd7, 0x11, 0x8b, 0x6c, 0xd9, 0xd5, 0xf3, 0xe6, 0x6d, 0x58, 0xc9, 0x44,
  0x93, 0x13, 0x37, 0x5e, 0xe5, 0xb3, 0xfb, 0x0f, 0xcb, 0xd1, 0x98, 0xec,
  0x2e, 0x54, 0xbc, 0x60, 0x39, 0x0c, 0xc1, 0x5e, 0x81, 0xbd, 0xe4, 0x3a,
  0xb1, 0xa7, 0x4c, 0xb2, 0x2c, 0x17, 0x6f, 0xfc, 0x85, 0x17, 0xb2, 0xc6,
  0x10, 0xd2, 0xe0, 0xff, 0x36, 0xeb, 0x10, 0x41, 0x23, 0x6f, 0xeb, 0x6c,
  0x44, 0xa3, 0x61, 0xc6, 0xf9, 0xb5, 0x95, 0x6a, 0x96, 0xf1, 0xe1, 0xd6,
  0x52, 0x22, 0x61, 0xe4, 0x9c, 0x45, 0x4d, 0x17, 0xf5, 0x52, 0x57, 0xc7,
  0xe7, 0x28, 0x0a, 0x09, 0x1f, 0xff, 0xec, 0x00, 0xc3, 0x0b, 0x1a, 0xd6,
  0x06, 0x34, 0x9e, 0xb4, 0xdb, 0x34, 0x05, 0xdc, 0xbc, 0xcd, 0xa0, 0xde,
  0x1c, 0x11, 0xf8, 0x23, 0xa4, 0x92, 0xe4, 0x3a, 0xeb, 0xdd, 0xe7, 0x08,
  0xab, 0x07, 0x3f, 0x9a, 0x03, 0x32, 0x55, 0x29, 0x6d, 0x97, 0x21, 0xd1,
  0x36, 0x90, 0xf1, 0xdc, 0xce, 0x19, 0xa5, 0xfa, 0x7f, 0x9f, 0x14, 0xec,
  0xe4, 0x0b, 0xc5, 0xb8, 0xb6, 0x0b, 0xd5, 0xed, 0x22, 0x18, 0x2f, 0x40,
  0x53, 0xa8, 0xd5, 0x16, 0x25, 0xad, 0xef, 0xb0, 0xd6, 0xcb, 0x34, 0x3b,
  0xea, 0x2b, 0x17, 0x46, 0x20, 0x3d, 0x17, 0xa4, 0x0b, 0xa0, 0x41, 0xaf,
  0xb0, 0xac, 0x61, 0xa2, 0x61, 0xe4, 0xc1, 0x0d, 0x55, 0x99, 0xf8, 0x43,
  0xe3, 0x5d, 0xe9, 0xda, 0xe2, 0x6a, 0xb2, 0x52, 0xb8, 0x41, 0xe4, 0x78,
  0x1e, 0x33, 0x17, 0xea, 0xc0, 0xa2, 0x42, 0x16, 0xe3, 0x93, 0x16, 0x2f,
  0xdf, 0xf2, 0x46, 0x0e, 0x8d, 0x5e, 0xca, 0x00, 0x2c, 0xd6, 0xf0, 0x52,
  0xe6, 0x72, 0x23, 0x40, 0x43, 0x3d, 0x2a, 0xf8, 0x81, 0x02, 0x3a, 0x2a,
  0x7a, 0x49, 0xe8, 0x0e, 0x17, 0xb1, 0x0d, 0x39, 0x41, 0xce, 0x6e, 0x3a,
  0x82, 0x0f, 0xb3, 0x57, 0x39, 0x06, 0xfb, 0x85, 0xae, 0x43, 0x27, 0x25,
  0xff, 0x56, 0xa4, 0x37, 0x4f, 0x5d, 0x97, 0xb3, 0xa5, 0x25, 0x11, 0xb8,
  0x2c, 0x30, 0x13, 0xa1, 0x58, 0xcc, 0xb3, 0x34, 0xf3, 0xd5, 0xe3, 0x9f,
  0x0d, 0xc7, 0xb9, 0xc6, 0x40, 0x28, 0x16, 0xcc, 0xbe, 0x81, 0x43, 0x45,
  0x20, 0xdb, 0x16, 0x17, 0xff, 0x0b, 0xe3, 0x37, 0xe7, 0xf3, 0xee, 0xf9,
  0x57, 0xc8, 0x6e, 0xd5, 0x0b, 0x6e, 0x7a, 0xe0, 0x46, 0x36, 0x4b, 0xb7,
  0x4d, 0xb4, 0x96, 0xa8, 0x85, 0x2b, 0x39, 0xca, 0x30, 0xee, 0xab, 0xc6,
  0x38, 0x8d, 0x59, 0xe4, 0xe3, 0x10, 0x4f, 0x42, 0x17, 0x3d, 0x29, 0xa0,
  0xec, 0xb7, 0x04, 0xb6, 0x4e, 0xb1, 0x2b, 0xf0, 0x91, 0x15, 0x74, 0x5f,
  0xa9, 0x63, 0xb4, 0xaa, 0xf4, 0xc0, 0x20, 0xdb, 0xa0, 0x98, 0x1e, 0xf5,
  0x38, 0xcf, 0xc0, 0xf1, 0xef, 0xc5, 0x70, 0x89, 0x25, 0xea, 0xa3, 0x4a,
  0x0f, 0xaa, 0xda, 0x33, 0xcf, 0x12, 0x4d, 0xfa, 0x44, 0x27, 0xf0, 0xac,
  0x37, 0x13, 0x58, 0x4b, 0xdb, 0x29, 0x5e, 0x70, 0x40, 0xe0, 0x56, 0x50,
  0xe3, 0x5c, 0x02, 0xe3, 0x35, 0xbc, 0xb5, 0xbc, 0x81, 0xfa, 0xf0, 0x10,
  0xbe, 0x7c, 0xf1, 0x29, 0x0a, 0x98, 0xfa, 0xbd, 0xe4, 0xee, 0x41, 0x2f,
  0x10, 0x2a, 0x61, 0x54, 0xfe, 0xd1, 0x44, 0x19, 0x54, 0x5e, 0x5d, 0xc4,
  0xf5, 0x3f, 0xb5, 0x31, 0xfe, 0xcc, 0xb6, 0xc2, 0x51, 0x78, 0x21, 0x3b,
  0xca, 0xe1, 0x95, 0x21, 0x0e, 0xd9, 0x67, 0x6d, 0x5e, 0x51, 0xe9, 0x66,
  0xce, 0x1c, 0x1a, 0x21, 0x57, 0x65, 0x02, 0xe5, 0x15, 0xd2, 0xc9, 0x2d,
  0xeb, 0xd2, 0xf5, 0x81, 0x2b, 0x4e, 0x5e, 0x02, 0x0c, 0x22, 0xbb, 0xd3,
  0xad, 0x4a, 0xf2, 0x3b, 0xc3, 0x40, 0xd1, 0xfc, 0xa7, 0x17, 0x46, 0xfc,
  0x60, 0x0a, 0xf9, 0xae, 0x21, 0xd7, 0xfd, 0x50, 0x0c, 0x09, 0x25, 0x0c,
  0x8c, 0x35, 0xfa, 0x31, 0xf7, 0xcd, 0x16, 0x24, 0xe1, 0xa6, 0x49, 0x02,
  0xeb, 0x13, 0xee, 0x57, 0xc0, 0x54, 0x56, 0xc3, 0xc0, 0x28, 0xb8, 0xac,
  0x7a, 0x41, 0x3f, 0x58, 0x11, 0x99, 0xeb, 0x51, 0x8e, 0xba, 0x03, 0xe9,
  0x0c, 0x48, 0x54, 0xe7, 0xfc, 0x03, 0x0a, 0xee, 0x11, 0x05, 0xfb, 0x26,
  0xbb, 0x63, 0x03, 0x3f, 0xda, 0xf3, 0xc9, 0xbb, 0xb5, 0xbf, 0xbd, 0xd3,
  0xa9, 0xb7, 0x39, 0xef, 0x46, 0x55, 0x03, 0x44, 0xc0, 0x2a, 0x55, 0xc9,
  0x93, 0xef, 0xc7, 0x52, 0x67, 0x46, 0x2a, 0x48, 0xba, 0x69, 0x72, 0x4d,
  0x24, 0xf7, 0x47, 0x3a, 0x3a, 0xd2, 0xc9, 0xc6, 0x81, 0xe6, 0xb4, 0x3c,
  0x37, 0x51, 0xb4, 0x2f, 0x74, 0x65, 0x21, 0x4d, 0x0d, 0x20, 0x67, 0xf2,
  0xbe, 0x71, 0xd2, 0xcf, 0x3a, 0x0b, 0xfb, 0xba, 0xc0, 0x10, 0xfd, 0xc9,
  0xea, 0x57, 0x53, 0x53, 0xf7, 0xd7, 0xb1, 0x1d, 0xd5, 0x0d, 0xe5, 0xc5,
  0x3f, 0x66, 0x37, 0x68, 0x1e, 0x61, 0x61, 0x5d, 0x53, 0x71, 0x0a, 0x14,
  0x83, 0xeb, 0x7a, 0x64, 0x43, 0x06, 0x2f, 0x24, 0xfa, 0xc8, 0x3b, 0x03,
  0xa8, 0xa2, 0xa2, 0x0e, 0x01, 0x5a, 0xfa, 0xd9, 0x4b, 0x5a, 0x5e, 0x4e,
  0x0c, 0x3b, 0xf2, 0x9d, 0xd7, 0x52, 0x3a, 0x30, 0x81, 0x87, 0xf0, 0x00,
  0xff, 0x7c, 0x1c, 0x4c, 0x33, 0x89, 0xef, 0x4f, 0xda, 0xc0, 0xf5, 0xe6,
  0xa0, 0x49, 0xde, 0xeb, 0x19, 0xcf, 0x05, 0x8e, 0xde, 0xe8, 0x05, 0x30,
  0x6b, 0x14, 0x01, 0x0a, 0xfc, 0x8f, 0x6d, 0x52, 0x40, 0x13, 0x8d, 0x04,
  0xf8, 0xdc, 0xc1, 0x13, 0xe8, 0xa8, 0xb2, 0xec, 0x8a, 0x55, 0xeb, 0x19,
  0xb6, 0x3f, 0x34, 0xab, 0x98, 0xb4, 0x1e, 0x29, 0x13, 0xe6, 0xb2, 0x23,
  0x27, 0xfc, 0xdc, 0xbb, 0xda, 0x3a, 0x1b, 0x02, 0x38, 0x1d, 0xf6, 0xf1,
  0xd6, 0xf8, 0x30, 0xfa, 0x0d, 0xc3, 0x64, 0x12, 0xa6, 0x17, 0xae, 0x10,
  0x42, 0xf1, 0x2d, 0xbc, 0xf0, 0xec, 0x41, 0xbb, 0xe8, 0xbb, 0xea, 0xe6,
  0xbc, 0x01, 0xf3, 0x90, 0x0d, 0xe4, 0xcd, 0xa2, 0xb1, 0xae, 0xaf, 0x81,
  0x03, 0x96, 0x71, 0x22, 0x82, 0xbb, 0x1a, 0x24, 0x9e, 0xd2, 0x68, 0x23,
  0xb1, 0x09, 0xad, 0x9d, 0x34, 0x47, 0xa2, 0x4b, 0xb7, 0x3f, 0x30, 0x08,
  0xe4, 0x57, 0x72, 0x25, 0x16, 0xf1, 0xbd, 0xe5, 0x91, 0xec, 0x7b, 0x2d,
  0xbc, 0x05, 0xa2, 0xbd, 0xd5, 0xfd, 0xf9, 0x00, 0x9a, 0xcd, 0x96, 0x23,
  0x19, 0xdf, 0x05, 0x97, 0x43, 0xe1, 0x30, 0x66, 0x4a, 0x03, 0x56, 0xa0,
  0xd8, 0x9c, 0xe8, 0x36, 0xa7, 0x99, 0xd6, 0xf1, 0xd1, 0x42, 0xfe, 0xe3,
  0xd4, 0x56, 0xb1, 0x50, 0xb6, 0x0e, 0x09, 0x36, 0xda, 0x2d, 0xfc, 0xdc,
  0x2c, 0xdb, 0x26, 0xbf, 0xd3, 0xa3, 0xf2, 0xc5, 0xd7, 0x3a, 0x05, 0xbe,
  0x03, 0xc4, 0x35, 0x1e, 0x0e, 0xb3, 0xad, 0xff, 0xa0, 0xe4, 0xfd, 0x11,
  0x9d, 0xbd, 0x1d, 0x96, 0x8f, 0x1b, 0xcb, 0x07, 0x3f, 0x61, 0xd6, 0x35,
  0x40, 0xb6, 0x08, 0xdb, 0xef, 0xf4, 0x19, 0x8a, 0x16, 0xd6, 0x1c, 0x36,
  0xb6, 0xce, 0xdd, 0x1f, 0x50, 0xdf, 0x34, 0xab, 0x04, 0x07, 0x81, 0xaf,
  0x7f, 0x6e, 0xb8, 0xe3, 0x5f, 0x30, 0x1e, 0xf4, 0xad, 0x13, 0x62, 0x49,
  0xff, 0x93, 0x1e, 0xa9, 0xfa, 0x4b, 0x28, 0x49, 0x45, 0xb7, 0xf3, 0x9d,
  0x10, 0x97, 0x6e, 0x0c, 0x96, 0xac, 0x70, 0x4a, 0xc9, 0x6e, 0xf2, 0x9b,
  0xf2, 0x04, 0x2e, 0xc5, 0xf1, 0xd6, 0x05, 0x07, 0xae, 0xcc, 0xae, 0xc7,
  0xc4, 0x02, 0xfd, 0xdb, 0x19, 0x26, 0xa7, 0xa1, 0x92, 0x3d, 0xdd, 0x29,
  0x0b, 0x10, 0xce, 0xf7, 0xf9, 0x4e, 0x08, 0x46, 0x3e, 0xcf, 0x06, 0x1f,
  0xc8, 0x26, 0x50, 0x20, 0x2b, 0xec, 0x8f, 0xd7, 0x49, 0xea, 0xf0, 0x31,
  0x0d, 0xeb, 0xf4, 0x85, 0x4c, 0xa4, 0xe3, 0x73, 0x49, 0xc6, 0xaa, 0x38,
  0xb2, 0x00, 0x3c, 0x81, 0xf9, 0x0a, 0x1c, 0xbe, 0x1e, 0x16, 0x56, 0x98,
  0x33, 0x38, 0xc0, 0x07, 0xf2, 0x95, 0x3c, 0xd5, 0x01, 0x0f, 0x9d, 0xf2,
  0xcf, 0xa7, 0x25, 0x18, 0xda, 0xc0, 0x06, 0x20, 0xc5, 0xbd, 0x9f, 0xe8,
  0xda, 0x68, 0x0b, 0x06, 0x4d, 0x20, 0xf8, 0xfc, 0xab, 0xb3, 0x18, 0x11,
  0xe1, 0x16, 0x4c, 0x2f, 0xa5, 0xb1, 0xe6, 0x9e, 0x1d, 0xbe, 0x1a, 0xd3,
  0xc6, 0x8b, 0x33, 0xed, 0x02, 0xbb, 0x14, 0x84, 0x0d, 0xd0, 0x0f, 0x29,
  0xc5, 0x25, 0x18, 0xdc, 0xe6, 0xa5, 0x1b, 0xc1, 0xd6, 0xc9, 0x61, 0x1f,
  0x87, 0xc6, 0x9d, 0xe6, 0xe5, 0xd2, 0x22, 0xa8, 0xc6, 0xb0, 0x9d, 0x8e,
  0x59, 0x3c, 0x8c, 0xa4, 0x36, 0xa3, 0x35, 0xee, 0x44, 0xbf, 0x01, 0xc6,
  0xbc, 0xbb, 0x3b, 0x39, 0xe7, 0x42, 0xc4, 0x24, 0xda, 0x51, 0x59, 0xaf,
  0xe3, 0xc1, 0x2b, 0xee, 0xc3, 0xe7, 0xf1, 0xdb, 0x52, 0x5a, 0xe4, 0x5c,
  0x5a, 0x2f, 0x01, 0xa6, 0x95, 0xb1, 0x08, 0x1a, 0x21, 0xb9, 0x67, 0xc2,
  0x1a, 0x57, 0xf7, 0x64, 0xb0, 0x3e, 0xab, 0xd7, 0xf7, 0x1b, 0x37, 0x77,
  0x71, 0xce, 0xef, 0x60, 0x4b, 0xcf, 0xfd, 0x14, 0xf7, 0xc5, 0x64, 0x39,
  0xdc, 0x15, 0xdd, 0x4e, 0x5f, 0x58, 0xe9, 0x81, 0xc5, 0xdb, 0xc7, 0x38,
  0xe2, 0x0e, 0x8a, 0x2f, 0xbe, 0xe9, 0x05, 0xe1, 0x10, 0x43, 0x56, 0xe6,
  0x51, 0xec, 0xf3, 0x16, 0xa6, 0xcc, 0x2a, 0xfa, 0xa4, 0xa4, 0xd3, 0xec,
  0xb0, 0x57, 0x18, 0xa4, 0xba, 0x52, 0x5e, 0x72, 0x45, 0x38, 0x01, 0xc6,
  0xf8, 0xea, 0x16, 0x62, 0xe0, 0x3e, 0x2a, 0x68, 0x73, 0x1b, 0x08, 0x0b,
  0x2a, 0xe9, 0x32, 0x5f, 0x56, 0xdd, 0x5f, 0x52, 0xa5, 0xfa, 0xed, 0x8a,
  0xc5, 0xd6, 0x3b, 0x5a, 0x9d, 0xe6, 0xd9, 0xea, 0x01, 0xc9, 0xe2, 0xc9,
  0xda, 0x1c, 0x67, 0xef, 0x0a, 0x01, 0xcd, 0x07, 0x46, 0xcf, 0x62, 0x01,
  0xb8, 0xb3, 0x8f, 0xbe, 0x0c, 0x39, 0xc6, 0x81, 0x04, 0xc4, 0xf7, 0x3c,
  0x1c, 0x63, 0xd0, 0xa9, 0xd9, 0xea, 0x38, 0x60, 0x69, 0x5b, 0x6d, 0xfc,
  0xba, 0x53, 0xb2, 0x31, 0x1b, 0xea, 0xb7, 0xfd, 0x57, 0x62, 0xa6, 0xa8,
  0x7f, 0x46, 0x15, 0x9a, 0xa6, 0x1d, 0x37, 0x64, 0xdc, 0x88, 0x34, 0xbe,
  0x6e, 0x37, 0xd7, 0xe7, 0xe6, 0xdc, 0x31, 0x0a, 0x53, 0x01, 0x13, 0xd2,
  0xf3, 0xe0, 0x73, 0x03, 0x69, 0xf6, 0xf8, 0xf2, 0x55, 0x3b, 0x83, 0x0b,
  0xe9, 0x55, 0x1e, 0xb2, 0xe4, 0x09, 0x38, 0x1b, 0x06, 0xfc, 0x1e, 0x6a,
  0x50, 0x8d, 0x95, 0xa0, 0x4d, 0xd3, 0xa2, 0xf2, 0x64, 0x0d, 0xeb, 0xfc,
  0x60, 0x16, 0x0c, 0x41, 0x29, 0xec, 0x8d, 0xfa, 0xf1, 0xf2, 0x32, 0x9b,
  0xce, 0xe6, 0x91, 0xa3, 0x43, 0xc9, 0x20, 0xa3, 0xff, 0xdb, 0x86, 0xa3,
  0xc5, 0xb7, 0xfa, 0xa6, 0x89, 0x01, 0xc8, 0xe8, 0x1c, 0xb6, 0xab, 0x18,
  0x02, 0xa1, 0x4a, 0xbb, 0xde, 0xc2, 0x26, 0xee, 0xbf, 0xc9, 0xde, 0x4c,
  0x4d, 0x2a, 0xa8, 0xa9, 0xd2, 0xf0, 0xd1, 0x47, 0xa4, 0x0b, 0xca, 0x00,
  0x18, 0xbc, 0xcc, 0xdc, 0xfd, 0xdc, 0x33, 0x99, 0x28, 0xed, 0x35, 0xe6,
  0x97, 0xec, 0x3c, 0x83, 0xea, 0x60, 0x17, 0x27, 0x2d, 0xac, 0x12, 0xdf,
  0x43, 0x39, 0xbd, 0x3c, 0x10, 0x85, 0xd1, 0x9e, 0xe3, 0x1b, 0xa6, 0x38,
  0x4e, 0x2b, 0x3f, 0xb5, 0xde, 0x14, 0xaf, 0x61, 0xf9, 0xa4, 0xd0, 0x14,
  0xd8, 0xee, 0x2e, 0xba, 0x7f, 0xd9, 0x24, 0xc4, 0x13, 0xdf, 0x45, 0xbb,
  0xde, 0xea, 0xfa, 0x7f, 0xf9, 0x12, 0x15, 0x40, 0x52, 0x49, 0x23, 0xe5,
  0xa8, 0xc0, 0xad, 0x44, 0x51, 0x3c, 0x53, 0xae, 0xbb, 0x36, 0x07, 0xb5,
  0xfb, 0xef, 0xc1, 0xc2, 0xf6, 0xdd, 0xd1, 0xe5, 0xd4, 0xb2, 0x06, 0xf4,
  0x01, 0x2b, 0xe7, 0x6f, 0xd5, 0x32, 0x40, 0xfb, 0xe5, 0x14, 0x47, 0xc2,
  0x06, 0x4a, 0x08, 0xe2, 0x55, 0xf0, 0xdc, 0x16, 0xfc, 0x54, 0xd8, 0xf8,
  0x60, 0xee, 0x26, 0x63, 0x2b, 0xe5, 0x48, 0x77, 0x1b, 0xe2, 0xe2, 0x67,
  0xca, 0xc5, 0x52, 0x04, 0x9a, 0x54, 0x1c, 0x03, 0xef, 0x1a, 0x11, 0x09,
  0xc9, 0x35, 0xab, 0xe5, 0x86, 0xb4, 0xf6, 0x25, 0x50, 0x6c, 0xe6, 0x3f,
  0x57, 0x30, 0xa8, 0x0b, 0xa3, 0x14, 0xec, 0xbe, 0x6c, 0x2f, 0xf2, 0x58,
  0xaa, 0xb9, 0x4d, 0xc4, 0xb2, 0xfd, 0x2d, 0xe5, 0x2e, 0x4c, 0x28, 0x16,
  0xfc, 0xf4, 0xd6, 0x5d, 0x64, 0x3a, 0x20, 0x5d, 0x4a, 0xc1, 0xe6, 0x5b,
  0x56, 0xfc, 0x11, 0x4a, 0x6e, 0xda, 0xdb, 0x5a, 0xc4, 0xaf, 0xc0, 0xf6,
  0xd1, 0x75, 0x6b, 0xf9, 0x39, 0xf2, 0x61, 0xf9, 0x23, 0x5e, 0x20, 0x1f,
  0x43, 0x5c, 0x1e, 0x21, 0x2a, 0x29, 0xd8, 0x92, 0xc0, 0xb8, 0x3d, 0x5a,
  0x1f, 0xd2, 0xfe, 0xfd, 0xee, 0xe3, 0x0c, 0x9a, 0xc5, 0x14, 0xd9, 0xf3,
  0xbc, 0x46, 0xc3, 0xb9, 0x38, 0xf3, 0x58, 0xd1, 0x37, 0xb3, 0x65, 0x81,
  0x44, 0x35, 0x31, 0x13, 0xc7, 0x16, 0xd4, 0x12, 0x1e, 0x39, 0xc2, 0x22,
  0xaf, 0xe9, 0x9f, 0xde, 0xe2, 0xf8, 0x2c, 0x1a, 0x4e, 0xf3, 0x1e, 0x72,
  0xb8, 0x18, 0x5b, 0xec, 0xb1, 0xe2, 0x59, 0x04, 0xe9, 0x5e, 0x3b, 0xec,
  0x00, 0xe9, 0x0e, 0x2d, 0x0f, 0xde, 0xc7, 0xc8, 0x88, 0xc4, 0xee, 0x65,
  0x47, 0x1e, 0x08, 0xff, 0x06, 0xf8, 0x7f, 0xed, 0x05, 0x43, 0x47, 0x29,
  0xf0, 0x06, 0x1c, 0xdc, 0xe7, 0xeb, 0xa6, 0x38, 0x9b, 0xc8, 0xcd, 0xfb,
  0x1a, 0x12, 0xda, 0xdf, 0x26, 0x0f, 0x33, 0xe7, 0x14, 0xf5, 0xb7, 0xaf,
  0x40, 0xd4, 0x56, 0x17, 0x2e, 0xf9, 0xd1, 0xc3, 0x24, 0xb7, 0xe9, 0xaf,
  0xf6, 0xf9, 0x2c, 0xf7, 0x15, 0x55, 0x04, 0x4e, 0xe7, 0xe2, 0x4c, 0x96,
  0x18, 0xaf, 0xa2, 0xd7, 0x00, 0xb7, 0x08, 0x35, 0x46, 0x53, 0x5e, 0x07,
  0xdd, 0xee, 0xcc, 0x52, 0x2d, 0x18, 0x3c, 0xc6, 0x0e, 0x06, 0xf5, 0xbd,
  0x07, 0x21, 0x45, 0xf7, 0xfc, 0xe7, 0xef, 0x1c, 0xdd, 0xfb, 0xa7, 0xbe,
  0x15, 0xcc, 0xcf, 0xd8, 0x0f, 0x45, 0x55, 0x39, 0x04, 0x4e, 0x33, 0x75,
  0xd5, 0x15, 0x1a, 0x9b, 0xca, 0xdb, 0xc6, 0xc8, 0xd2, 0x41, 0xca, 0xe2,
  0xdb, 0x4c, 0xd2, 0x81, 0x17, 0x26, 0xbf, 0x0b, 0x19, 0x02, 0xd9, 0xfc,
  0xe5, 0x02, 0xf1, 0xb5, 0x21, 0xdb, 0xaf, 0xe6, 0xd7, 0xd5, 0x11, 0xd0,
  0x28, 0xe3, 0x4a, 0xc9, 0xaf, 0x59, 0x33, 0xe6, 0x63, 0xf8, 0x02, 0x0b,
  0xec, 0xfe, 0xc8, 0xd9, 0xfd, 0xe9, 0x63, 0x4a, 0x1d, 0x0d, 0x5e, 0x74,
  0xdc, 0x29, 0x68, 0xc7, 0xeb, 0xcb, 0x0c, 0x38, 0x36, 0x5d, 0xef, 0x3f,
  0x18, 0x5f, 0x58, 0x63, 0xa4, 0xc7, 0x3d, 0xb7, 0x8f, 0xb4, 0x2c, 0x41,
  0xca, 0xc5, 0xeb, 0x2d, 0x2a, 0x00, 0x2d, 0x31, 0xc3, 0x67, 0xa8, 0xbe,
  0xed, 0xea, 0xe9, 0xec, 0xee, 0x4e, 0xe1, 0xec, 0x81, 0x4d, 0xb7, 0xb5,
  0xbb, 0xd1, 0xff, 0x26, 0x1c, 0x22, 0xa7, 0x43, 0xb1, 0xc5, 0x4f, 0xcf,
  0x52, 0x48, 0x44, 0xec, 0x06, 0xeb, 0x27, 0x2c, 0xa9, 0x00, 0x13, 0x21,
  0xe9, 0x2b, 0xc5, 0x97, 0xc9, 0x2d, 0x2c, 0x9d, 0xb1, 0xef, 0x36, 0xc8,
  0x1f, 0x1b, 0xc0, 0x45, 0xde, 0xdc, 0xca, 0x3c, 0x1a, 0xf8, 0x51, 0x7f,
  0x9e, 0xe3, 0xde, 0x05, 0xcb, 0xdf, 0x47, 0xe1, 0x79, 0xfd, 0xfd, 0x00,
  0xd2, 0xe8, 0x15, 0x0a, 0x66, 0xf0, 0x16, 0xf7, 0xe8, 0xc6, 0xf0, 0x2f,
  0xf0, 0xc2, 0xc5, 0x4a, 0x66, 0x28, 0x21, 0xed, 0xcb, 0xe5, 0x51, 0xcd,
  0xa0, 0xdd, 0x4f, 0xc1, 0x33, 0x13, 0x9a, 0xa4, 0xb9, 0x4a, 0xec, 0xac,
  0xbc, 0xed, 0xb6, 0x26, 0xb8, 0xcb, 0x3c, 0x74, 0xcb, 0xc9, 0xbf, 0x31,
  0x52, 0x43, 0xf7, 0x64, 0x05, 0x04, 0xee, 0xf6, 0xff, 0x1a, 0x6d, 0x86,
  0xb7, 0xc5, 0x4c, 0x74, 0x3d, 0x48, 0xb9, 0xe2, 0x4c, 0xe0, 0xf1, 0x71,
  0x8b, 0xd2, 0x16, 0x23, 0xdd, 0xb7, 0xfc, 0x1e, 0xea, 0xc8, 0xc4, 0x03,
  0xaf, 0x3a, 0xee, 0x45, 0x30, 0xdf, 0x03, 0x10, 0x31, 0xc1, 0x17, 0x51,
  0x29, 0x0d, 0xf2, 0x5e, 0x1d, 0x0c, 0x1b, 0x39, 0xf6, 0xc5, 0x13, 0x36,
  0x9c, 0xbb, 0x60, 0x63, 0x7f, 0x64, 0x52, 0x23, 0xd7, 0x12, 0xe9, 0x42,
  0x6e, 0xc5, 0x86, 0xce, 0x1b, 0xa9, 0x02, 0xd0, 0x58, 0x95, 0xb5, 0x56,
  0x4b, 0xc3, 0x50, 0xae, 0xad, 0xf6, 0xa7, 0xaa, 0x58, 0xa0, 0xec, 0xbc,
  0x02, 0xae, 0x96, 0x8e, 0xaa, 0xe1, 0x59, 0x2d, 0xc1, 0x2c, 0x64, 0xf0,
  0x45, 0xea, 0xe7, 0x45, 0xda, 0xc0, 0xde, 0xf1, 0xef, 0x59, 0x16, 0x1c,
  0xab, 0xfb, 0xd3, 0xf3, 0xe0, 0x25, 0xa7, 0x1a, 0xd4, 0x21, 0x26, 0x06,
  0x23, 0xc9, 0x4d, 0x18, 0x32, 0x3e, 0xfe, 0x1b, 0x19, 0x3c, 0x14, 0x5b,
  0x13, 0x4a, 0x57, 0x02, 0xc9, 0x03, 0xcc, 0xca, 0x24, 0xdd, 0xfa, 0xc1,
  0xe3, 0x7f, 0xba, 0x28, 0x37, 0xae, 0x2d, 0xc0, 0x2b, 0xf6, 0x03, 0x40,
  0x4e, 0xd2, 0xf3, 0x41, 0xfb, 0xea, 0x6f, 0xea, 0x76, 0xc0, 0x16, 0xd0,
  0x2f, 0xd5, 0xe2, 0x09, 0x3f, 0xd8, 0x53, 0xf6, 0xc2, 0x14, 0xd8, 0x46,
  0x24, 0x25, 0xdb, 0xbe, 0x41, 0x9d, 0x41, 0x21, 0x49, 0xc9, 0xfb, 0xf7,
  0x74, 0x6a, 0xb5, 0x9b, 0x8a, 0x57, 0xeb, 0x3b, 0xba, 0xa6, 0x11, 0x42,
  0xda, 0x29, 0x73, 0x2d, 0x5e, 0x99, 0x52, 0x3d, 0xdc, 0xc8, 0x0a, 0xae,
  0x5b, 0xe0, 0xb4, 0x92, 0x19, 0x13, 0xed, 0xa6, 0x16, 0x52, 0x6a, 0x47,
  0xdb, 0xfc, 0xf3, 0x01, 0x0a, 0x94, 0xd0, 0x44, 0x93, 0xdd, 0x69, 0xdb,
  0x6a, 0x7a, 0xfe, 0xee, 0x7f, 0x9d, 0x16, 0x1d, 0x4b, 0x7a, 0xa3, 0x30,
  0x5e, 0x25, 0x51, 0x29, 0x89, 0x28, 0x4c, 0x4a, 0xf9, 0xdf, 0xdb, 0x06,
  0xe7, 0x6b, 0x48, 0x54, 0xb0, 0x8c, 0xf8, 0x03, 0xd5, 0xc0, 0x52, 0xb6,
  0xf5, 0xb8, 0xb7, 0x55, 0x53, 0xb9, 0xa7, 0x75, 0x64, 0x7b, 0xbc, 0x1b,
  0x38, 0x92, 0xd4, 0x0e, 0xb1, 0x02, 0x48, 0xbe, 0x1c, 0xab, 0xaa, 0x1e,
  0x96, 0x16, 0xb4, 0x7e, 0x19, 0xcd, 0x7a, 0x11, 0xac, 0xe0, 0x38, 0x32,
  0x31, 0xa9, 0x81, 0x8c, 0x06, 0x0b, 0x9b, 0x14, 0x96, 0xac, 0x0f, 0xdd,
  0x11, 0x0d, 0xa5, 0x0e, 0x04, 0x2d, 0x1d, 0xa1, 0xe4, 0xb3, 0x53, 0xac,
  0xce, 0x53, 0xb0, 0xcb, 0xf0, 0x59, 0x64, 0x6b, 0x38, 0x02, 0xe2, 0x92,
  0xb4, 0x25, 0x51, 0x69, 0xc8, 0x1d, 0x4a, 0x20, 0xbd, 0xa8, 0xad, 0xb3,
  0x10, 0x99, 0x69, 0xed, 0x4b, 0xad, 0xe3, 0x75, 0xa4, 0x5d, 0x2a, 0x99,
  0xa0, 0x54, 0xe5, 0x00, 0x32, 0x58, 0x39, 0x06, 0x6e, 0xf1, 0xf0, 0x28,
  0x56, 0xb7, 0x28, 0xb7, 0x14, 0x7a, 0x95, 0xdd, 0xe9, 0xb2, 0xb9, 0x0b,
  0x91, 0x23, 0x49, 0x21, 0x8b, 0xaf, 0xd3, 0x41, 0x53, 0x89, 0x97, 0xa6,
  0xd0, 0xa5, 0xd5, 0x96, 0x5c, 0x82, 0x35, 0xf4, 0xba, 0xe9, 0xd6, 0xf4,
  0xd8, 0x60, 0xfb, 0x44, 0x26, 0x40, 0x75, 0x33, 0xf9, 0xd3, 0x02, 0x8f,
  0x1a, 0x95, 0x5f, 0xa0, 0xce, 0x8b, 0x8d, 0xb1, 0x3b, 0x86, 0x55, 0xf9,
  0x2c, 0x32, 0x81, 0xdb, 0x35, 0x3d, 0x3c, 0xc9, 0x29, 0xb9, 0x58, 0x33,
  0x39, 0x25, 0xdb, 0x12, 0xee, 0x43, 0xb7, 0xdb, 0x86, 0x87, 0xa4, 0xc0,
  0xa9, 0xdd, 0xb2, 0xa2, 0x8e, 0x13, 0xa3, 0x4a, 0x2f, 0x1c, 0x32, 0x01,
  0xc6, 0xbf, 0xa6, 0x77, 0x19, 0xd3, 0x91, 0xb3, 0x51, 0x24, 0x1a, 0x0b,
  0x10, 0xd9, 0x90, 0xb2, 0xa2, 0xbb, 0x52, 0xe1, 0xd8, 0x36, 0xe5, 0x2c,
  0x42, 0x3f, 0xd3, 0x48, 0x39, 0xfd, 0xbf, 0xe0, 0xd8, 0xf9, 0x5a, 0x7f,
  0x05, 0x18, 0xc0, 0x60, 0x64, 0xee, 0x2f, 0x61, 0xa1, 0x36, 0x30, 0xf4,
  0xa4, 0x2b, 0x64, 0x50, 0x94, 0xec, 0x29, 0xde, 0x17, 0xdf, 0xb8, 0x07,
  0x74, 0xd4, 0xed, 0xea, 0x48, 0x00, 0xc0, 0x6a, 0x45, 0xd4, 0x32, 0x35,
  0xfd, 0xd0, 0xc2, 0x50, 0x90, 0xd4, 0xd7, 0x06, 0x8b, 0xd5, 0x56, 0x27,
  0x9f, 0xae, 0xed, 0xab, 0x29, 0x9e, 0x2c, 0xe3, 0xfd, 0x5c, 0x24, 0x68,
  0xb4, 0xbb, 0x59, 0x39, 0x64, 0x03, 0x35, 0x5e, 0x0b, 0x0c, 0x31, 0x59,
  0xf5, 0xfc, 0x2c, 0xfc, 0xc0, 0x22, 0xd8, 0x52, 0xb5, 0x06, 0xaf, 0xf4,
  0x99, 0xd8, 0xf5, 0x5d, 0xbe, 0x23, 0xa4, 0xdf, 0x3a, 0x34, 0xc9, 0xc3,
  0x9f, 0x0b, 0xf1, 0x25, 0x0f, 0x45, 0xb5, 0x09, 0xc3, 0x1a, 0xd0, 0x6f,
  0xf5, 0x04, 0x08, 0xa8, 0x08, 0x3a, 0xee, 0xda, 0x1f, 0x8e, 0x23, 0xcf,
  0x9c, 0x37, 0x38, 0xcd, 0xc1, 0xe2, 0x06, 0x49, 0x9e, 0xb5, 0xeb, 0x56,
  0x61, 0x12, 0xf2, 0xc4, 0x23, 0xf3, 0xf1, 0x6b, 0xa0, 0x12, 0xc9, 0xf9,
  0x1b, 0x09, 0x7f, 0xfd, 0xd9, 0x33, 0xe5, 0xe5, 0x5c, 0xea, 0x43, 0x0e,
  0x58, 0xe9, 0xdd, 0x31, 0xa0, 0x14, 0xcd, 0xbd, 0x1d, 0x58, 0x15, 0xf1,
  0x0d, 0x9d, 0x97, 0xb7, 0x10, 0xe6, 0x05, 0x37, 0x9c, 0xe4, 0xfe, 0xd9,
  0xdb, 0x11, 0x16, 0xb5, 0x06, 0xf9, 0xe7, 0xc8, 0x12, 0x57, 0x98, 0xb2,
  0xb5, 0x72, 0xd2, 0xaa, 0x7f, 0xf0, 0x33, 0x42, 0xe5, 0x9c, 0x29, 0xd7,
  0xeb, 0x94, 0x39, 0x25, 0xb9, 0x8f, 0x15, 0x20, 0x25, 0xa7, 0x3b, 0x3c,
  0xc7, 0x8b, 0xc3, 0xdd, 0x56, 0xf5, 0xa7, 0xdf, 0x37, 0x06, 0xbf, 0x9f,
  0x18, 0xf2, 0x70, 0x03, 0xc2, 0xc8, 0x16, 0xf4, 0xbf, 0xd6, 0xe2, 0x0f,
  0x0e, 0x81, 0xb2, 0xbd, 0x4b, 0xcd, 0x07, 0x0b, 0x90, 0xce, 0x8b, 0xdc,
  0x2f, 0xe7, 0xbe, 0x95, 0xbe, 0x50, 0x16, 0x5f, 0xe9, 0x2d, 0x2a, 0xd7,
  0xa2, 0x3c, 0x37, 0x0e, 0xb5, 0x3e, 0xeb, 0xd1, 0xb3, 0x31, 0x30, 0xfe,
  0xdf, 0xda, 0xe4, 0xe9, 0xe6, 0xb0, 0xed, 0x2e, 0xbb, 0xc9, 0x00, 0xd4,
  0xd4, 0x22, 0xbd, 0xee, 0x37, 0x04, 0xf4, 0x0a, 0xb1, 0xd7, 0xbe, 0xe5,
  0x38, 0xe5, 0xf2, 0xea, 0x9c, 0xa3, 0xfb, 0xdf, 0x32, 0xc0, 0x4e, 0x0e,
  0x81, 0xcf, 0xb0, 0xa8, 0x40, 0xda, 0x09, 0xee, 0xc6, 0x4c, 0x06, 0xb6,
  0x2a, 0xfc, 0x6b, 0xb2, 0xfe, 0xb5, 0xac, 0xc4, 0x14, 0x15, 0x17, 0x3c,
  0xc1, 0x9c, 0x2c, 0xc4, 0x9c, 0x31, 0xf7, 0xbc, 0x9f, 0x1e, 0x0e, 0x13,
  0xeb, 0x46, 0x9a, 0xcd, 0xfc, 0x1c, 0xf8, 0x64, 0xc8, 0x4a, 0xe4, 0xf7,
  0xdd, 0x3d, 0xe0, 0x61, 0x03, 0x35, 0x53, 0x3e, 0xfe, 0x03, 0xec, 0x23,
  0x19, 0x52, 0x4a, 0x1f, 0xf1, 0xbb, 0x29, 0xe7, 0x18, 0xe1, 0xec, 0x13,
  0x10, 0x21, 0xae, 0x1c, 0xee, 0xd7, 0xb8, 0x1c, 0xf4, 0xe8, 0x18, 0x22,
  0x17, 0xea, 0x36, 0xda, 0x43, 0x41, 0xf8, 0x03, 0xbc, 0x56, 0xe6, 0xd3,
  0x2c, 0x3e, 0xa9, 0x18, 0xbe, 0xbe, 0xd2, 0xf3, 0xbe, 0x40, 0xfc, 0x7f,
  0x49, 0xe7, 0x2f, 0xbc, 0x03, 0x39, 0x42, 0x3d, 0x1f, 0xab, 0x1d, 0x40,
  0x48, 0x0a, 0x50, 0xd4, 0xf0, 0xf7, 0x01, 0xd4, 0xf3, 0x09, 0xdb, 0x10,
  0xc6, 0x18, 0xc5, 0xab, 0xb5, 0x35, 0x76, 0xb1, 0x53, 0x35, 0x28, 0x81,
  0x62, 0x92, 0x09, 0xc1, 0xc7, 0xeb, 0x18, 0xb4, 0xa9, 0xe0, 0x97, 0x57,
  0xb0, 0xf3, 0x54, 0xd1, 0x4f, 0x84, 0x16, 0x1c, 0xef, 0xd1, 0xe0, 0x36,
  0x08, 0x3c, 0xd8, 0xdd, 0xcf, 0xa3, 0xb0, 0x50, 0x2c, 0x59, 0xa1, 0x9a,
  0x8e, 0x89, 0x63, 0x1d, 0x07, 0xe0, 0xa9, 0x67, 0xba, 0xf0, 0xaf, 0xab,
  0xc2, 0x8f, 0x05, 0xda, 0x24, 0x5a, 0x89, 0x02, 0x33, 0xf9, 0xe9, 0xb6,
  0x29, 0x71, 0x02, 0xb6, 0x2d, 0x1e, 0x54, 0x3c, 0x47, 0x08, 0x1e, 0x4a,
  0x9e, 0xca, 0xe8, 0x96, 0x52, 0xcd, 0x4c, 0x67, 0x3e, 0xee, 0x4b, 0x5c,
  0x74, 0xf1, 0x8b, 0xf8, 0x02, 0x75, 0x70, 0x45, 0x79, 0x24, 0x5a, 0xe1,
  0x1e, 0x81, 0xf6, 0xac, 0x34, 0xac, 0xc4, 0xc8, 0xc5, 0x5b, 0x26, 0x43,
  0x0e, 0x28, 0x14, 0x0f, 0xf2, 0x90, 0xfd, 0x29, 0xba, 0x61, 0xfa, 0x99,
  0xd4, 0x75, 0x46, 0x0b, 0xac, 0xdc, 0x7b, 0xfb, 0xbd, 0x4d, 0x44, 0xd2,
  0xf8, 0x1c, 0x0f, 0x16, 0xaf, 0x46, 0x88, 0xdc, 0xff, 0xfb, 0xb6, 0xa3,
  0xda, 0xf8, 0x33, 0xae, 0x98, 0x5e, 0x89, 0x0b, 0x55, 0x5e, 0x10, 0xb7,
  0x60, 0x43, 0x2b, 0x93, 0xb9, 0xca, 0xb1, 0xca, 0x20, 0x99, 0xbc, 0xec,
  0x03, 0x19, 0x12, 0xa6, 0xfd, 0xc9, 0xb5, 0xc5, 0x94, 0xfa, 0x9c, 0xec,
  0xd3, 0x37, 0xb4, 0xa2, 0xc2, 0xff, 0x07, 0x9a, 0x51, 0xf3, 0xe3, 0x26,
  0xa5, 0xdd, 0xdd, 0x19, 0x2e, 0xe3, 0x33, 0x2a, 0xdf, 0xe4, 0xb4, 0x0b,
  0xb6, 0xc2, 0xcc, 0xee, 0xbf, 0xec, 0xd1, 0xa3, 0x51, 0xf3, 0xd4, 0xb1,
  0xef, 0x6d, 0x22, 0x0c, 0x47, 0x21, 0xd7, 0x1b, 0x9f, 0xe5, 0xb2, 0xe5,
  0xf0, 0xbb, 0x67, 0x32, 0xa3, 0x96, 0x11, 0xe1, 0xa7, 0xa0, 0xd8, 0xeb,
  0xdc, 0xcf, 0xa7, 0xd8, 0xc4, 0x42, 0xf5, 0xb9, 0x27, 0x24, 0xf1, 0x92,
  0xe7, 0x58, 0xf0, 0x81, 0xa8, 0xbb, 0xa1, 0xf7, 0x2a, 0x16, 0x2d, 0x26,
  0xdc, 0xb9, 0x90, 0x9c, 0xee, 0xe2, 0xcb, 0x2e, 0xc7, 0xb2, 0x07, 0xee,
  0x9a, 0xeb, 0xff, 0xff, 0x04, 0x00, 0x00, 0x00, 0x00, 0x01, 0x00, 0x00,
  0x9b, 0xfd, 0xff, 0xff, 0x7b, 0xfe, 0xff, 0xff, 0xdd, 0xff, 0xff, 0xff,
  0x77, 0xff, 0xff, 0xff, 0x18, 0xff, 0xff, 0xff, 0x9d, 0x00, 0x00, 0x00,
  0xf5, 0x00, 0x00, 0x00, 0xb2, 0xff, 0xff, 0xff, 0x03, 0x02, 0x00, 0x00,
  0x2b, 0x01, 0x00, 0x00, 0xf5, 0xff, 0xff, 0xff, 0xa1, 0x00, 0x00, 0x00,
  0x5a, 0x02, 0x00, 0x00, 0x21, 0x02, 0x00, 0x00, 0x63, 0xfc, 0xff, 0xff,
  0x39, 0x01, 0x00, 0x00, 0x9c, 0xfd, 0xff, 0xff, 0x84, 0x01, 0x00, 0x00,
  0x6b, 0x00, 0x00, 0x00, 0x75, 0xff, 0xff, 0xff, 0x83, 0xfe, 0xff, 0xff,
  0x4f, 0x01, 0x00, 0x00, 0xd4, 0x01, 0x00, 0x00, 0x4d, 0x02, 0x00, 0x00,
  0xe2, 0x01, 0x00, 0x00, 0xd0, 0x00, 0x00, 0x00, 0xd4, 0xfe, 0xff, 0xff,
  0x36, 0x02, 0x00, 0x00, 0x9a, 0x01, 0x00, 0x00, 0x61, 0x02, 0x00, 0x00,
  0x68, 0x02, 0x00, 0x00, 0xc9, 0xfe, 0xff, 0xff, 0x52, 0x00, 0x00, 0x00,
  0x29, 0x01, 0x00, 0x00, 0xb6, 0x01, 0x00, 0x00, 0x4f, 0x00, 0x00, 0x00,
  0xe2, 0x02, 0x00, 0x00, 0x8b, 0x03, 0x00, 0x00, 0xdc, 0x02, 0x00, 0x00,
  0x92, 0x01, 0x00, 0x00, 0xcc, 0x02, 0x00, 0x00, 0xb6, 0xfe, 0xff, 0xff,
  0xe1, 0xfe, 0xff, 0xff, 0x27, 0x01, 0x00, 0x00, 0x87, 0x01, 0x00, 0x00,
  0xc2, 0xff, 0xff, 0xff, 0xf2, 0x01, 0x00, 0x00, 0x73, 0x01, 0x00, 0x00,
  0x08, 0x02, 0x00, 0x00, 0x14, 0x00, 0x00, 0x00, 0x5a, 0x02, 0x00, 0x00,
  0x71, 0x00, 0x00, 0x00, 0xad, 0xff, 0xff, 0xff, 0xe8, 0x00, 0x00, 0x00,
  0xf2, 0x01, 0x00, 0x00, 0xa5, 0x01, 0x00, 0x00, 0xb5, 0x03, 0x00, 0x00,
  0x53, 0x01, 0x00, 0x00, 0xde, 0x03, 0x00, 0x00, 0x78, 0x01, 0x00, 0x00,
  0x8d, 0x00, 0x00, 0x00, 0x4a, 0x01, 0x00, 0x00, 0x3b, 0x02, 0x00, 0x00,
  0x5e, 0x03, 0x00, 0x00, 0xa6, 0xec, 0xff, 0xff, 0x04, 0x00, 0x00, 0x00,
  0x00, 0x10, 0x00, 0x00, 0x29, 0x64, 0xdd, 0x15, 0x37, 0xde, 0x50, 0x12,
  0x23, 0x3f, 0x05, 0xbc, 0xef, 0xfa, 0xdc, 0x00, 0x1a, 0x57, 0x63, 0x08,
  0xce, 0x4b, 0xcf, 0x97, 0x22, 0x58, 0xee, 0x14, 0x46, 0x10, 0xdc, 0x1e,
  0x26, 0xf8, 0x29, 0x53, 0xdb, 0x4c, 0x9c, 0xfa, 0x00, 0x53, 0xfa, 0x22,
  0x14, 0x4e, 0x19, 0x2a, 0x05, 0xc2, 0xbb, 0x2c, 0x13, 0xf1, 0xf6, 0xca,
  0xe3, 0xec, 0x19, 0x3b, 0x4a, 0x39, 0xd5, 0x25, 0xd3, 0x20, 0xd9, 0x23,
  0xb1, 0x33, 0xb3, 0xdc, 0x2c, 0x13, 0xd9, 0x3a, 0x05, 0x1c, 0x27, 0x46,
  0xc3, 0xf2, 0x3e, 0xc0, 0x94, 0xf5, 0xaf, 0xdf, 0xe9, 0x0a, 0x0f, 0xac,
  0xe3, 0xb5, 0xc9, 0xba, 0x52, 0xe3, 0xe2, 0x2d, 0xf3, 0x5e, 0x4f, 0x4e,
  0xd4, 0x61, 0x1a, 0xfd, 0xc1, 0x3a, 0x16, 0xda, 0x45, 0x1f, 0x4f, 0xb6,
  0x50, 0x19, 0x11, 0xec, 0xf3, 0xb9, 0x22, 0x13, 0x90, 0x57, 0x46, 0x39,
  0xbd, 0xa3, 0x62, 0xbc, 0xbd, 0xa8, 0x58, 0xcc, 0x53, 0xf8, 0x22, 0x28,
  0xd0, 0x4d, 0xe7, 0x16, 0x49, 0x15, 0xc9, 0x36, 0x4a, 0xe5, 0x01, 0x5d,
  0x3e, 0x3f, 0x56, 0x34, 0x26, 0x54, 0xcf, 0xbf, 0xc1, 0x96, 0x19, 0x5c,
  0x1f, 0xad, 0x1d, 0x03, 0x48, 0xb8, 0xe6, 0x57, 0xa7, 0x2a, 0x1d, 0x44,
  0xf9, 0x49, 0x32, 0x3e, 0x9d, 0xb3, 0xe1, 0x5e, 0x16, 0xf2, 0xe5, 0x14,
  0x44, 0xbe, 0xdd, 0xe4, 0xd5, 0xd1, 0x31, 0x6a, 0x4b, 0xa3, 0x46, 0x31,
  0x2f, 0x08, 0xbf, 0x1e, 0x06, 0xc2, 0x43, 0x46, 0x0f, 0x06, 0x50, 0x3b,
  0xfc, 0x0c, 0xc7, 0xe1, 0x15, 0xc6, 0x0a, 0x2a, 0x4d, 0x52, 0xc7, 0x3b,
  0x26, 0x40, 0x35, 0xe6, 0x13, 0xf1, 0x42, 0xf9, 0xa8, 0x22, 0x01, 0x02,
  0xc4, 0x53, 0x10, 0x57, 0x55, 0x02, 0xd9, 0xdf, 0xc2, 0xec, 0x0e, 0x0a,
  0xef, 0xc2, 0xae, 0xab, 0x57, 0x1a, 0x63, 0x14, 0xab, 0xab, 0xe0, 0xe9,
  0x9f, 0x30, 0xc3, 0xb6, 0x90, 0xf7, 0x6a, 0x18, 0xb5, 0xf1, 0x47, 0x1c,
  0x28, 0x55, 0xaa, 0xad, 0x15, 0x94, 0x5b, 0xb1, 0x0a, 0x39, 0xee, 0x44,
  0xe9, 0x1e, 0x39, 0x08, 0x1d, 0xd9, 0x18, 0xde, 0x28, 0xd8, 0x2f, 0x00,
  0x54, 0xa9, 0x06, 0x1f, 0x58, 0xea, 0x41, 0xe2, 0x2e, 0xa2, 0xbc, 0xfb,
  0xa6, 0xec, 0xe4, 0x2f, 0xd9, 0x30, 0xe5, 0x2a, 0x26, 0x3c, 0xbd, 0xf4,
  0xd8, 0x9d, 0xe4, 0xa2, 0x3a, 0x05, 0xdf, 0x46, 0xd8, 0xb4, 0x0d, 0x43,
  0xbb, 0x5a, 0x1b, 0x99, 0x2c, 0x33, 0xb4, 0xa0, 0x0c, 0x08, 0x20, 0xf6,
  0x13, 0x3c, 0x05, 0xc8, 0x3f, 0xe6, 0x0d, 0xc7, 0xcf, 0xe7, 0x21, 0xee,
  0x14, 0x48, 0xaa, 0xe7, 0x08, 0xca, 0xfd, 0x36, 0x21, 0xf7, 0x3a, 0x4e,
  0xb1, 0xe5, 0xb6, 0x02, 0x31, 0xcd, 0x23, 0x9d, 0xc4, 0x48, 0xfd, 0x05,
  0xaf, 0xb0, 0xb8, 0xbd, 0x05, 0xc6, 0xf8, 0x27, 0x3a, 0xbe, 0xfa, 0x06,
  0xdd, 0xb5, 0xe5, 0x60, 0x60, 0x5d, 0x06, 0x04, 0x3f, 0xeb, 0xb7, 0x1a,
  0x5c, 0x46, 0xe7, 0x01, 0xd3, 0x5b, 0xea, 0x49, 0xab, 0x28, 0xbc, 0x64,
  0x5e, 0x17, 0xbf, 0xca, 0x04, 0x2d, 0xa8, 0x4c, 0xcd, 0x4f, 0x58, 0xc5,
  0x5b, 0x59, 0x0a, 0x3c, 0x67, 0x54, 0x10, 0xcd, 0xb9, 0xc7, 0xc2, 0x4c,
  0x6b, 0x3a, 0xdb, 0xe2, 0x66, 0xe5, 0xff, 0xc8, 0x26, 0x4f, 0x01, 0xba,
  0x2c, 0x25, 0xb0, 0xc3, 0x04, 0x0d, 0x1a, 0x9c, 0xd4, 0xd7, 0x4b, 0xcc,
  0x2d, 0x24, 0x0f, 0x3a, 0xef, 0xc5, 0x9e, 0x43, 0x0e, 0x49, 0xa9, 0xbe,
  0xc9, 0xbf, 0x1e, 0xd2, 0x27, 0xda, 0x1d, 0xa6, 0x0f, 0xc3, 0x50, 0x42,
  0xb6, 0x0a, 0x0d, 0xfc, 0xe7, 0x0f, 0xc4, 0xf6, 0xd6, 0xdf, 0x55, 0x46,
  0xdb, 0x2f, 0xe4, 0xe0, 0x16, 0xe2, 0xfe, 0x46, 0x48, 0x42, 0x0a, 0xaf,
  0xa2, 0xac, 0xf5, 0xb2, 0x38, 0x1e, 0x58, 0xd4, 0x0e, 0xf0, 0x26, 0xda,
  0xa8, 0x29, 0x1b, 0x2f, 0x17, 0xec, 0xda, 0x36, 0xba, 0x43, 0xa1, 0x4c,
  0xf1, 0x22, 0xd2, 0x1d, 0xbb, 0x54, 0xa1, 0xfe, 0xca, 0x32, 0xd8, 0x2f,
  0x3b, 0x2c, 0xbe, 0xfb, 0xb4, 0xc6, 0xd9, 0x37, 0xab, 0xe1, 0x12, 0xf7,
  0x29, 0x3c, 0xa4, 0x00, 0xb5, 0x41, 0x09, 0x9e, 0x9a, 0xfe, 0xa3, 0xf6,
  0x58, 0x02, 0xeb, 0x47, 0x31, 0x49, 0x0a, 0x0a, 0x25, 0x56, 0x31, 0xb2,
  0x21, 0xef, 0x13, 0xd0, 0xdf, 0x14, 0x1a, 0x01, 0xa2, 0xe9, 0x30, 0x9b,
  0x3d, 0xbf, 0xe2, 0x05, 0x09, 0xa4, 0x0f, 0xa6, 0xb9, 0xaf, 0x0b, 0x42,
  0x03, 0xbe, 0x19, 0x15, 0xd6, 0x7a, 0x76, 0x56, 0xf1, 0xa8, 0x27, 0x04,
  0x3a, 0xe0, 0x18, 0x8d, 0x0b, 0xab, 0x9a, 0xd5, 0x03, 0x36, 0x3c, 0x2f,
  0xb6, 0x48, 0xee, 0x28, 0xd3, 0x0b, 0x43, 0x5a, 0xd2, 0x25, 0x3b, 0xd3,
  0xcb, 0x59, 0x70, 0xb0, 0x49, 0x11, 0x51, 0x2c, 0x1b, 0x32, 0xdc, 0x26,
  0x45, 0xec, 0xdc, 0x63, 0xdd, 0xb9, 0xdf, 0xf2, 0xb3, 0x66, 0xf6, 0xee,
  0xd3, 0x52, 0x14, 0xda, 0xf8, 0x1b, 0x68, 0xb4, 0x42, 0xba, 0xcf, 0x38,
  0x1b, 0xb9, 0xe1, 0xab, 0xa8, 0x32, 0x4b, 0xfa, 0xfd, 0x1f, 0x19, 0x23,
  0x21, 0x27, 0x5c, 0x58, 0x2b, 0x44, 0x09, 0x03, 0xfb, 0xd9, 0x17, 0x56,
  0xd7, 0x02, 0xd7, 0x3e, 0x4a, 0x52, 0xf2, 0x42, 0xc2, 0x1d, 0x2a, 0xd4,
  0x46, 0x44, 0xd3, 0xf6, 0xce, 0x42, 0x04, 0xba, 0xb2, 0x2b, 0x5c, 0xb4,
  0xab, 0x23, 0xae, 0x63, 0xcd, 0x42, 0xd9, 0xff, 0xfb, 0x2b, 0x50, 0x1f,
  0xc9, 0xdc, 0x0b, 0x31, 0x21, 0x17, 0x64, 0x3c, 0xd9, 0x62, 0x4f, 0xc5,
  0xb6, 0x58, 0x4d, 0x19, 0x10, 0x01, 0x59, 0xab, 0xf8, 0x1d, 0xf5, 0xf2,
  0xfa, 0x9b, 0xb2, 0x21, 0x44, 0x47, 0x51, 0x56, 0x49, 0xf0, 0xde, 0x4d,
  0x55, 0x10, 0xe7, 0xf5, 0xd0, 0x41, 0x59, 0x05, 0xa5, 0xab, 0x19, 0x6f,
  0x19, 0x36, 0x31, 0xb3, 0xf9, 0x40, 0x1c, 0x9d, 0xb3, 0x1f, 0xb9, 0xea,
  0xec, 0x14, 0xa5, 0xc4, 0x9b, 0xe7, 0x63, 0x41, 0x47, 0xa0, 0xbf, 0xfc,
  0xee, 0xa7, 0xef, 0x5f, 0x19, 0x2f, 0x4f, 0x31, 0xb0, 0xcc, 0x51, 0xb9,
  0x1e, 0x50, 0x57, 0x1e, 0x4d, 0x37, 0xe4, 0x4b, 0xe8, 0x0d, 0xcf, 0x99,
  0x8b, 0xc6, 0x04, 0xba, 0xed, 0x40, 0x1a, 0x2e, 0x11, 0x3c, 0xc1, 0x96,
  0xfb, 0xb7, 0x16, 0x14, 0x08, 0xdf, 0xda, 0xbb, 0x03, 0x96, 0x5b, 0xa9,
  0x4d, 0x22, 0x3c, 0x39, 0x1d, 0xbb, 0xc6, 0x49, 0xc9, 0x4e, 0xe3, 0x0a,
  0x22, 0x2f, 0x66, 0xf8, 0xb1, 0x21, 0xd1, 0xab, 0xef, 0xa3, 0xa9, 0xe0,
  0xe0, 0xa4, 0xf0, 0x28, 0x27, 0x45, 0x47, 0x62, 0x93, 0xe0, 0xee, 0x49,
  0xe3, 0xe0, 0x3c, 0x1a, 0x33, 0x18, 0x3b, 0xbe, 0xe0, 0x46, 0x1c, 0xc2,
  0x9f, 0x22, 0x8a, 0xbb, 0x8d, 0x3b, 0x51, 0xed, 0x9f, 0xc1, 0x5b, 0xc3,
  0xbc, 0x08, 0x9d, 0x45, 0xcf, 0x1c, 0x24, 0x97, 0x13, 0x5b, 0x01, 0x9c,
  0xba, 0xe2, 0xcf, 0xb6, 0x12, 0x07, 0xe4, 0xa9, 0x0a, 0xad, 0xf3, 0x3c,
  0xd1, 0x1c, 0x0b, 0xea, 0xf7, 0xfb, 0x36, 0x02, 0x56, 0x57, 0x3c, 0x5c,
  0x1b, 0xbf, 0xf6, 0x2c, 0x56, 0x48, 0xfc, 0xdf, 0xc9, 0x35, 0x57, 0xc7,
  0xcc, 0x04, 0x42, 0x61, 0x6a, 0xe0, 0xcd, 0x43, 0xc6, 0x77, 0x62, 0x64,
  0x4c, 0xc7, 0x55, 0xf5, 0x4d, 0x4e, 0x51, 0xe9, 0xd3, 0xfd, 0xf5, 0xea,
  0x36, 0xfb, 0x6c, 0x14, 0x0b, 0xeb, 0x1a, 0xde, 0xed, 0x00, 0xb3, 0xac,
  0x14, 0xed, 0x2f, 0x5a, 0x19, 0x6b, 0x7a, 0xe1, 0x5a, 0x4b, 0xc0, 0xdf,
  0x24, 0xea, 0x28, 0x36, 0xd5, 0x55, 0xfe, 0xae, 0xd3, 0x21, 0xf2, 0x42,
  0x3f, 0x17, 0x97, 0xb4, 0x47, 0x22, 0x22, 0x51, 0xbe, 0xbc, 0x3f, 0xff,
  0x2f, 0xc1, 0xf7, 0x42, 0x26, 0x3d, 0x3f, 0xe0, 0xdf, 0xdf, 0x9f, 0x1a,
  0x53, 0xa6, 0xa9, 0xfe, 0x15, 0xda, 0x4f, 0xec, 0x4e, 0xc8, 0x14, 0xfe,
  0xf1, 0xdb, 0xd2, 0x34, 0xab, 0x21, 0x1b, 0xed, 0xc2, 0x41, 0x00, 0xba,
  0xe0, 0xd6, 0xba, 0x12, 0xe7, 0xcc, 0xb3, 0x11, 0xf0, 0x30, 0xa3, 0x16,
  0x50, 0xf3, 0x58, 0x3a, 0xdd, 0x55, 0xfb, 0x5b, 0xe3, 0xe8, 0xb2, 0x2f,
  0x09, 0xac, 0x3b, 0x47, 0x1d, 0x45, 0xd1, 0xbe, 0x1c, 0x5b, 0x2a, 0xd3,
  0xf1, 0x1e, 0x29, 0xd5, 0x30, 0x45, 0x07, 0xbd, 0xac, 0x0a, 0x41, 0xb3,
  0x22, 0xb1, 0x1e, 0xc8, 0xb2, 0x57, 0xbd, 0x23, 0xe1, 0x44, 0xbc, 0xb6,
  0xfc, 0xba, 0x32, 0x13, 0x22, 0x64, 0xb1, 0x53, 0x5c, 0x0a, 0xb4, 0x1f,
  0x43, 0x49, 0x22, 0xc6, 0xbb, 0xc0, 0x50, 0xfe, 0x1b, 0x26, 0xee, 0xb0,
  0x54, 0x23, 0xcc, 0x2d, 0x4a, 0x59, 0x18, 0x3a, 0x03, 0xae, 0xb0, 0x50,
  0xed, 0x21, 0x12, 0xe9, 0x1b, 0xfd, 0x08, 0xc5, 0xea, 0xe8, 0xba, 0x5f,
  0x50, 0x07, 0x32, 0x55, 0xa4, 0x2d, 0x51, 0x45, 0x27, 0x35, 0xf1, 0x31,
  0xc2, 0xd6, 0xde, 0x23, 0x1a, 0x54, 0xc5, 0xda, 0xe7, 0x07, 0x18, 0xf7,
  0x48, 0x11, 0xc8, 0xe1, 0xcd, 0xcb, 0x39, 0x1d, 0xf3, 0x93, 0xe4, 0x5c,
  0x65, 0x5d, 0x26, 0x98, 0x36, 0x13, 0xd3, 0xbf, 0x11, 0xba, 0x0b, 0x29,
  0x09, 0x45, 0xc6, 0x31, 0x2d, 0x9b, 0x4f, 0xdf, 0x0d, 0xc4, 0x3d, 0x9e,
  0x02, 0x00, 0x2e, 0x1e, 0xb3, 0xb8, 0xde, 0xd6, 0x33, 0x50, 0x5a, 0xde,
  0x09, 0xef, 0xa8, 0x0c, 0x14, 0xae, 0x40, 0x50, 0x65, 0x3f, 0x0e, 0xa7,
  0x1f, 0xed, 0x59, 0x28, 0x4f, 0x13, 0xba, 0x60, 0x2c, 0x0f, 0x5d, 0xdc,
  0x26, 0xd4, 0xda, 0xee, 0xf7, 0x14, 0x46, 0x20, 0x1a, 0xf2, 0xca, 0x52,
  0x39, 0xea, 0xf4, 0xbe, 0x50, 0x2f, 0xa2, 0x4d, 0xd0, 0xc6, 0xee, 0xda,
  0xfe, 0x41, 0xdc, 0x0c, 0x40, 0xcf, 0x12, 0x18, 0xb3, 0xc2, 0xf6, 0x54,
  0xd8, 0x03, 0x48, 0xd8, 0x4b, 0xfe, 0xf5, 0x0e, 0xcd, 0xe7, 0xa3, 0x35,
  0x5a, 0xbe, 0xe3, 0x4c, 0x2b, 0xe0, 0xd9, 0x25, 0x0b, 0xc7, 0xd0, 0xa1,
  0xa4, 0x0d, 0xd6, 0xe4, 0xae, 0x65, 0x1c, 0xde, 0x0d, 0xb9, 0x17, 0x55,
  0x22, 0x20, 0xd5, 0x51, 0xc2, 0x20, 0xb9, 0x39, 0x16, 0xc3, 0xf3, 0xb0,
  0xf9, 0x4e, 0x3b, 0x18, 0x2b, 0xf1, 0xa9, 0x5b, 0x22, 0xcd, 0xa8, 0xc3,
  0xa0, 0x53, 0xe2, 0x03, 0x41, 0xfd, 0x4f, 0x60, 0x2b, 0xfa, 0xb6, 0x3a,
  0xfb, 0xdb, 0x5b, 0x3b, 0xa1, 0x3c, 0xec, 0xc6, 0xfd, 0xe9, 0x67, 0xc8,
  0x5d, 0x39, 0x52, 0x1d, 0xa4, 0x3c, 0x02, 0xb5, 0xe2, 0x4d, 0xd9, 0xd6,
  0xed, 0xf3, 0xe9, 0x5f, 0x53, 0x24, 0x34, 0xf8, 0xcc, 0x0c, 0x3e, 0x01,
  0x62, 0xbd, 0xa6, 0xfc, 0xc3, 0xc2, 0xbb, 0xd8, 0xcc, 0xfd, 0x37, 0xf1,
  0x4f, 0xfd, 0xfa, 0xe2, 0x18, 0x67, 0x2e, 0x5e, 0xf0, 0x63, 0x4d, 0x2d,
  0xcd, 0x56, 0x41, 0xa1, 0x0e, 0x43, 0x0f, 0x0f, 0x54, 0xf3, 0x1d, 0xe7,
  0x4d, 0x55, 0x99, 0x06, 0xb7, 0xb9, 0xd8, 0xc1, 0x0f, 0x1b, 0x2a, 0xcd,
  0x9f, 0x40, 0xd6, 0xe7, 0xf7, 0xdd, 0x81, 0xd0, 0xf6, 0x02, 0x90, 0xa5,
  0x33, 0xa4, 0xf4, 0x89, 0xdb, 0xa1, 0xa1, 0x1f, 0xb7, 0xe8, 0xea, 0xda,
  0x2c, 0xc5, 0x4c, 0xf8, 0x04, 0xc7, 0x33, 0x24, 0x2e, 0x2c, 0x08, 0x3a,
  0x94, 0x42, 0x20, 0xda, 0xf3, 0xf6, 0xbb, 0x5a, 0x10, 0x38, 0x32, 0xe6,
  0xf8, 0xd9, 0x29, 0xb0, 0xa9, 0xe2, 0x16, 0xbf, 0x90, 0x95, 0x0b, 0x33,
  0xfc, 0xed, 0x48, 0x4f, 0xe4, 0xfe, 0x58, 0xeb, 0xf0, 0xc9, 0x59, 0x5c,
  0x24, 0xef, 0xc9, 0x62, 0xf2, 0xf8, 0xea, 0x2b, 0xb0, 0x29, 0x5f, 0xb6,
  0xeb, 0xab, 0x2a, 0xa6, 0xcb, 0xd0, 0x5d, 0x12, 0xec, 0x11, 0xf6, 0x50,
  0xcd, 0x3d, 0x15, 0x12, 0x06, 0x3f, 0xc9, 0x16, 0x94, 0x45, 0xfd, 0xbf,
  0xff, 0x29, 0x25, 0x38, 0x13, 0xb6, 0xe7, 0xb0, 0x0f, 0xc4, 0x68, 0xf4,
  0x5f, 0xc6, 0x35, 0x52, 0xe7, 0x3e, 0xe8, 0x00, 0x54, 0x24, 0x11, 0x2a,
  0x3d, 0x08, 0xd2, 0x06, 0x01, 0x1a, 0x2c, 0x5d, 0x21, 0x42, 0xab, 0x51,
  0xe5, 0x2d, 0x47, 0x15, 0x5c, 0x5a, 0xee, 0x5a, 0xd8, 0xac, 0x3d, 0x2a,
  0x0a, 0xc2, 0xe2, 0xba, 0x55, 0x03, 0x3a, 0x2d, 0x2f, 0xe1, 0x41, 0xa4,
  0xc8, 0xa6, 0xba, 0xf8, 0xc4, 0xc0, 0xe8, 0xbf, 0x2d, 0xe4, 0x00, 0x04,
  0xbb, 0xfe, 0xd7, 0x32, 0x9d, 0x5e, 0x4d, 0xb0, 0x69, 0xe8, 0x2e, 0x3c,
  0xd7, 0xfc, 0x20, 0x55, 0xf8, 0x53, 0x11, 0xd9, 0xab, 0xba, 0x18, 0xab,
  0x43, 0x1e, 0x09, 0x17, 0xe6, 0xb3, 0xcf, 0x99, 0x08, 0xdf, 0x00, 0x0a,
  0x67, 0xa8, 0xf8, 0x28, 0x48, 0xd6, 0xfc, 0x5b, 0x44, 0x3e, 0x02, 0x14,
  0x9d, 0x05, 0x35, 0x4c, 0x24, 0x31, 0x09, 0x65, 0x3b, 0x4a, 0xc1, 0xeb,
  0xbc, 0x4d, 0x13, 0xbe, 0x25, 0xa6, 0x58, 0x2b, 0x13, 0x1e, 0x70, 0x20,
  0xa1, 0x27, 0xea, 0x1d, 0x3e, 0x40, 0xd7, 0x56, 0x38, 0xba, 0x08, 0x43,
  0xbd, 0xc7, 0x07, 0xb1, 0xfa, 0x07, 0x24, 0x98, 0xed, 0xf2, 0x1b, 0xa6,
  0x55, 0xa3, 0x2b, 0xb8, 0x3b, 0xf8, 0x4e, 0xc8, 0x2f, 0x4a, 0xe8, 0xcb,
  0x42, 0xa2, 0x9f, 0x1b, 0xec, 0x9f, 0xb8, 0x51, 0xe0, 0x54, 0xee, 0xdd,
  0x30, 0x0a, 0x3c, 0xfe, 0xbb, 0x53, 0xb3, 0xa4, 0xdc, 0x15, 0x2f, 0xd6,
  0x31, 0xd9, 0xd9, 0x54, 0xd0, 0xd0, 0x25, 0x1c, 0x25, 0xd3, 0x60, 0x1e,
  0xcd, 0xb3, 0x5e, 0xee, 0x51, 0x16, 0xa6, 0x47, 0xa3, 0x64, 0xe1, 0x29,
  0xd9, 0x1a, 0xd0, 0x4c, 0x6a, 0xb6, 0x62, 0xb6, 0x01, 0x1e, 0x0a, 0x4a,
  0x23, 0xe4, 0xd5, 0xab, 0xd4, 0xf5, 0xf7, 0xeb, 0x0f, 0xbf, 0x6a, 0xf3,
  0x3c, 0xe2, 0x52, 0xdb, 0xb2, 0x2b, 0x39, 0xde, 0x5f, 0x5c, 0xda, 0xac,
  0xf0, 0x58, 0xe2, 0xd1, 0xea, 0x33, 0xc6, 0x59, 0x15, 0x33, 0xc6, 0xe2,
  0xa0, 0x5c, 0xea, 0xd4, 0xab, 0xbf, 0x26, 0x35, 0x57, 0x27, 0x09, 0xce,
  0xf9, 0xcf, 0xaf, 0x4e, 0xf2, 0x9c, 0xd5, 0x56, 0xa0, 0x58, 0xa9, 0x11,
  0xd8, 0x49, 0x4d, 0xd8, 0x06, 0x27, 0xe4, 0x65, 0xdb, 0xe2, 0xab, 0x33,
  0x42, 0x06, 0xbd, 0xbc, 0x31, 0xeb, 0x0d, 0xd8, 0x24, 0x06, 0xcd, 0x1a,
  0xc2, 0x48, 0x0d, 0x34, 0x49, 0x56, 0x2f, 0xce, 0xfc, 0xfd, 0x61, 0x4b,
  0xba, 0xbe, 0xd6, 0x10, 0x40, 0x36, 0x24, 0x02, 0x43, 0x3a, 0xd0, 0xb9,
  0x32, 0xe7, 0x0b, 0xf2, 0xef, 0x34, 0x0c, 0x36, 0xd1, 0x15, 0x08, 0xed,
  0x4b, 0x20, 0x07, 0xd1, 0x1b, 0x3a, 0xd3, 0x06, 0xe1, 0xbb, 0x15, 0x02,
  0xd3, 0x5f, 0x32, 0x11, 0xf4, 0xf2, 0xdf, 0x3e, 0x22, 0xe3, 0x2e, 0x10,
  0xcb, 0xeb, 0x13, 0x29, 0xc3, 0xf5, 0x0a, 0xd3, 0x65, 0x62, 0xb5, 0x2f,
  0x5b, 0x46, 0x36, 0x1d, 0x50, 0xdf, 0xeb, 0xd3, 0xc4, 0xb0, 0xc2, 0xda,
  0x0e, 0xe9, 0xb3, 0x2d, 0x60, 0x00, 0x4c, 0x0f, 0x3e, 0x0c, 0x25, 0x3e,
  0xab, 0x1b, 0xfb, 0xde, 0x3c, 0x5c, 0x15, 0xd5, 0xed, 0x1b, 0x5e, 0x59,
  0x44, 0x50, 0xb7, 0xc6, 0xbb, 0xdb, 0x67, 0x52, 0x0b, 0x08, 0xab, 0xc8,
  0xaa, 0xb6, 0x2b, 0x37, 0x07, 0xf7, 0x63, 0xaf, 0xf3, 0xbd, 0xb9, 0xbe,
  0x5c, 0xfd, 0x2f, 0xde, 0x1b, 0x0d, 0xa9, 0xcb, 0x29, 0x0e, 0x02, 0xd5,
  0xff, 0xd8, 0xce, 0x9b, 0xab, 0x29, 0x9c, 0x2b, 0x32, 0xa8, 0x29, 0x30,
  0xc0, 0xb5, 0xa5, 0xad, 0x3b, 0xc3, 0x24, 0xac, 0xde, 0xc6, 0x46, 0xfc,
  0x31, 0x00, 0x43, 0x08, 0x23, 0x2e, 0xee, 0xb0, 0x33, 0xe4, 0x3d, 0xda,
  0xad, 0x11, 0x0f, 0x3a, 0x2b, 0x57, 0x4c, 0xc6, 0x26, 0xc5, 0x2a, 0x05,
  0xda, 0x07, 0x32, 0xc3, 0xde, 0x36, 0xb2, 0xee, 0x15, 0xa8, 0x17, 0xfc,
  0xf5, 0x23, 0x58, 0xe4, 0x3b, 0x0e, 0xe3, 0x3c, 0xa7, 0xe5, 0xb0, 0xd5,
  0x58, 0x40, 0x9f, 0x0f, 0xd4, 0x3b, 0xe3, 0x15, 0xaa, 0xb9, 0x04, 0x4f,
  0x0d, 0x52, 0x0f, 0x1a, 0x34, 0x14, 0xd3, 0x0e, 0x24, 0xd1, 0x64, 0xb3,
  0x1b, 0x01, 0xf6, 0x38, 0xfd, 0x4a, 0x35, 0x41, 0x63, 0x53, 0xde, 0x10,
  0x10, 0xa4, 0xb3, 0x95, 0xfc, 0x92, 0x0a, 0x55, 0xe9, 0xd2, 0x4e, 0xf2,
  0xca, 0xc5, 0xef, 0x3a, 0x9f, 0x3a, 0x3c, 0xfe, 0xf4, 0x05, 0x3e, 0x30,
  0xb0, 0x46, 0x0d, 0x32, 0xf7, 0x17, 0x25, 0xec, 0xe4, 0x3e, 0x51, 0xf7,
  0x66, 0x58, 0xf8, 0x95, 0x40, 0x52, 0x1f, 0xc3, 0x50, 0x30, 0xab, 0x32,
  0xbd, 0x11, 0xd7, 0xed, 0xfb, 0xe8, 0xb8, 0x40, 0x66, 0xc2, 0x43, 0x38,
  0x1e, 0x20, 0xdb, 0xce, 0xea, 0x05, 0x51, 0x0d, 0xd2, 0x54, 0x17, 0xcf,
  0xdc, 0x40, 0xd4, 0x34, 0x2d, 0xc4, 0xd7, 0xd1, 0x07, 0x03, 0xbe, 0x07,
  0xd4, 0xce, 0x48, 0xac, 0x4b, 0xf0, 0x09, 0x14, 0x14, 0xca, 0x9d, 0xd8,
  0xe3, 0x49, 0xb6, 0x2c, 0xa3, 0x15, 0x2b, 0xc4, 0x09, 0x55, 0x0b, 0x19,
  0x73, 0x35, 0xf9, 0xb1, 0xbf, 0x20, 0x21, 0x24, 0x12, 0x35, 0xf1, 0x3a,
  0x38, 0x00, 0x4f, 0xf1, 0x30, 0x59, 0x0a, 0x5c, 0xbd, 0x90, 0xdd, 0x15,
  0x59, 0xe6, 0x2e, 0xd0, 0x2f, 0xbf, 0x9d, 0x45, 0x99, 0xdf, 0x66, 0x13,
  0xdb, 0x5d, 0x0e, 0x0e, 0x2f, 0xf7, 0xba, 0x13, 0x59, 0x07, 0xf2, 0xbb,
  0x58, 0xc6, 0x8f, 0xbb, 0x00, 0xdd, 0x05, 0xa8, 0xbf, 0xc0, 0xb2, 0xd5,
  0xf6, 0x38, 0x59, 0x71, 0x45, 0x0d, 0x2f, 0x1c, 0x22, 0x9f, 0x10, 0xc6,
  0xaf, 0x16, 0xa9, 0xfe, 0x96, 0x1a, 0xe1, 0x17, 0x56, 0x1e, 0x2f, 0xda,
  0x5b, 0xd0, 0x59, 0xeb, 0x25, 0xcb, 0x24, 0x4e, 0x1d, 0x20, 0x2a, 0xcd,
  0xdf, 0xbc, 0x7b, 0x00, 0xc2, 0xc0, 0x55, 0x72, 0xdb, 0xf2, 0x18, 0xc5,
  0x33, 0x1b, 0x63, 0xe0, 0x01, 0xd2, 0x06, 0xe0, 0x28, 0x1b, 0xf4, 0xeb,
  0x4c, 0x36, 0x38, 0x13, 0x19, 0xd4, 0xc2, 0xb2, 0xc4, 0x27, 0x54, 0xda,
  0xb9, 0xf7, 0xab, 0x23, 0x49, 0x50, 0x6c, 0x58, 0xdf, 0xdf, 0xb8, 0xe6,
  0xff, 0x5d, 0xff, 0x2f, 0x2d, 0x60, 0xbb, 0x3a, 0x72, 0x1d, 0xfe, 0x61,
  0x57, 0xc6, 0xfb, 0x3e, 0x6d, 0xf0, 0xbc, 0xc8, 0xdd, 0xa5, 0xd6, 0x1c,
  0x49, 0xad, 0xe3, 0x3c, 0xb9, 0xe9, 0x1a, 0xac, 0xf5, 0xeb, 0x02, 0x1f,
  0x35, 0x2f, 0x0d, 0x05, 0xd3, 0x5a, 0x6a, 0x97, 0xc6, 0xac, 0xc3, 0xf6,
  0xcf, 0xb6, 0xee, 0x19, 0x11, 0x22, 0x5c, 0x01, 0x20, 0xcd, 0x05, 0xb3,
  0x63, 0xc7, 0x5e, 0xb9, 0xb2, 0x97, 0x26, 0x43, 0x32, 0x11, 0xc5, 0x06,
  0x0e, 0xd2, 0xc5, 0xf2, 0x4a, 0x4e, 0x11, 0xb8, 0x62, 0x08, 0x24, 0x12,
  0xb3, 0xaf, 0xbd, 0xe0, 0x2f, 0x43, 0x33, 0x27, 0x1e, 0xc4, 0xfc, 0x44,
  0x3d, 0x2f, 0xd7, 0xab, 0x33, 0x60, 0xd5, 0xd0, 0xba, 0xd9, 0x19, 0xf6,
  0x62, 0xcd, 0xdc, 0xf9, 0xec, 0x12, 0x19, 0x1d, 0xd5, 0x02, 0x37, 0xda,
  0x18, 0xe7, 0x14, 0xf7, 0x4b, 0xf3, 0x5a, 0xcf, 0x4e, 0x12, 0xbf, 0x17,
  0x13, 0xc4, 0x18, 0x44, 0xd0, 0x3d, 0x1a, 0xe6, 0x9b, 0x43, 0xeb, 0xc8,
  0xac, 0xaf, 0xb7, 0x4f, 0x25, 0xeb, 0xe6, 0xd7, 0xfc, 0xe6, 0xb5, 0x27,
  0xab, 0x4e, 0xa7, 0xc9, 0xa4, 0xb9, 0xf7, 0x30, 0x3f, 0xcb, 0x27, 0x0d,
  0xef, 0xfa, 0x0c, 0x8d, 0x47, 0xb2, 0x2a, 0x3c, 0xee, 0x92, 0x36, 0xe4,
  0xd1, 0xd6, 0x62, 0xdb, 0x3c, 0xf1, 0x3d, 0xaf, 0x98, 0xe4, 0x22, 0xc6,
  0x4c, 0x0e, 0x28, 0x68, 0x4f, 0xa0, 0xc9, 0xfd, 0x4e, 0xa2, 0xf0, 0x39,
  0xcd, 0xeb, 0xf5, 0xed, 0x38, 0xd7, 0x61, 0x44, 0x28, 0xfc, 0x64, 0xe9,
  0x19, 0x4e, 0x8f, 0x23, 0x20, 0x4e, 0x0f, 0xb3, 0x02, 0xb2, 0xc8, 0x0e,
  0xc7, 0x2a, 0x24, 0xa1, 0x21, 0x21, 0x34, 0xed, 0x96, 0x26, 0xaf, 0xe3,
  0x56, 0xc2, 0x0b, 0x02, 0x07, 0xc8, 0x31, 0x19, 0x35, 0xab, 0xfa, 0x99,
  0x86, 0xd3, 0x4e, 0x3c, 0x56, 0xa5, 0xbc, 0x23, 0x9a, 0x33, 0x9c, 0x3e,
  0x0f, 0xea, 0xf6, 0x42, 0x9e, 0x26, 0xc2, 0x17, 0xa5, 0x8b, 0x43, 0x1b,
  0xf5, 0x50, 0x4b, 0x46, 0x0c, 0x0f, 0x00, 0xb5, 0xeb, 0x0a, 0xe4, 0x47,
  0xb0, 0xad, 0x03, 0x3c, 0xf3, 0xff, 0x0a, 0xfd, 0x52, 0x48, 0x42, 0xdf,
  0xc1, 0x9b, 0x46, 0xe4, 0x37, 0x42, 0x3e, 0xa2, 0xad, 0x9b, 0x29, 0x09,
  0x40, 0xb9, 0x0e, 0x9f, 0xf2, 0xdf, 0x2e, 0xc3, 0xad, 0xba, 0x01, 0x1a,
  0xe2, 0x01, 0xe1, 0xbe, 0xc6, 0x1d, 0x38, 0xf0, 0x35, 0x28, 0x17, 0x0c,
  0x18, 0x5b, 0x54, 0x05, 0xf0, 0x41, 0xa0, 0x95, 0x03, 0xb0, 0xc5, 0x93,
  0xfb, 0x54, 0x1e, 0x38, 0xf1, 0x13, 0x0c, 0xfd, 0x40, 0x39, 0xff, 0xaf,
  0x1a, 0xa3, 0x04, 0xd5, 0xaf, 0x4d, 0xa7, 0x4f, 0xfa, 0x35, 0xc1, 0xdf,
  0x6d, 0xa0, 0x19, 0x32, 0x37, 0xc3, 0x00, 0xc9, 0xb9, 0x17, 0x3b, 0x4d,
  0x6e, 0xf2, 0xdd, 0x1e, 0xe8, 0x83, 0x44, 0x4d, 0x12, 0xfb, 0x0d, 0xdb,
  0xda, 0xe0, 0x93, 0xb6, 0x3b, 0xbd, 0xfb, 0xfc, 0x85, 0x23, 0x70, 0x1b,
  0x9d, 0x35, 0xf1, 0xd9, 0x3f, 0xbb, 0x62, 0xde, 0x59, 0x20, 0x09, 0xd2,
  0x10, 0xc9, 0xe1, 0xd6, 0x41, 0x52, 0x50, 0xf8, 0x96, 0xb0, 0x35, 0xd5,
  0x9e, 0xa0, 0xf7, 0x61, 0xfb, 0x47, 0x2c, 0x14, 0x07, 0xe7, 0xd9, 0x48,
  0x3d, 0xc8, 0x22, 0x61, 0xe9, 0xe6, 0x02, 0x09, 0xcc, 0xd2, 0xda, 0x59,
  0xb9, 0x65, 0x2d, 0x62, 0x18, 0xd0, 0xf9, 0x0b, 0xc1, 0x50, 0xd7, 0xf3,
  0x53, 0x24, 0x14, 0xff, 0xaa, 0x64, 0x30, 0x3b, 0x45, 0x36, 0x2b, 0x46,
  0x2b, 0xe0, 0xe2, 0xc3, 0x58, 0xc9, 0x54, 0xcc, 0xc3, 0xea, 0x5d, 0x8d,
  0x02, 0x44, 0xe9, 0x3f, 0x0d, 0x94, 0x14, 0xfb, 0x21, 0x36, 0xcc, 0x33,
  0xed, 0x20, 0x16, 0xae, 0x3f, 0xfa, 0xd9, 0xb1, 0x2d, 0xf0, 0x07, 0x00,
  0x01, 0x64, 0x1c, 0xb0, 0xae, 0x98, 0x04, 0x2a, 0x52, 0xb8, 0xeb, 0xf0,
  0x16, 0x08, 0x14, 0xef, 0x4c, 0x14, 0xe1, 0x0c, 0xdd, 0x34, 0x07, 0xf8,
  0x40, 0xec, 0x37, 0xb7, 0xa3, 0x98, 0xe6, 0x46, 0x3a, 0xa4, 0xfd, 0x4c,
  0x5c, 0x8f, 0x34, 0x49, 0x3b, 0x0b, 0xda, 0xda, 0xd6, 0x45, 0x32, 0xdb,
  0x5e, 0xa3, 0x43, 0xf6, 0x2f, 0x02, 0x06, 0xbb, 0xa8, 0x3a, 0x30, 0x3a,
  0xe7, 0xb9, 0x3c, 0x46, 0xff, 0x2b, 0xc0, 0x1b, 0x59, 0xd3, 0x09, 0xc1,
  0xd2, 0xa7, 0xeb, 0x37, 0xaf, 0xdd, 0x55, 0x45, 0x3a, 0xee, 0xe5, 0x5f,
  0x32, 0xba, 0x4d, 0xe4, 0xa7, 0xe3, 0x46, 0xcf, 0x0e, 0xe2, 0x9f, 0xec,
  0xad, 0x45, 0x30, 0x57, 0xd1, 0x10, 0x28, 0xfe, 0x3f, 0x18, 0x49, 0xb3,
  0xfd, 0x07, 0x43, 0x17, 0xd9, 0xbe, 0xf0, 0x2e, 0xf0, 0xc2, 0x3c, 0xa9,
  0xa8, 0x18, 0x0d, 0xd0, 0x21, 0x4e, 0xc8, 0x13, 0x43, 0xf9, 0xa9, 0xb9,
  0x03, 0xf3, 0x07, 0xd7, 0x47, 0xb4, 0xf7, 0x1f, 0xa9, 0x55, 0xa7, 0xa8,
  0xbf, 0xd4, 0xde, 0xe9, 0xe5, 0x37, 0xfc, 0xbe, 0x4d, 0xf5, 0x3b, 0x14,
  0x3d, 0xf5, 0xc3, 0xe7, 0xee, 0xb5, 0xa9, 0x58, 0x57, 0xca, 0x08, 0x07,
  0x4a, 0x2f, 0xa8, 0x2b, 0xd4, 0xcc, 0x2b, 0x0f, 0x9e, 0x9e, 0xda, 0x36,
  0xab, 0xb7, 0x12, 0xd0, 0xcb, 0xac, 0x05, 0xe9, 0xc9, 0x0d, 0xa8, 0xc3,
  0x33, 0xe5, 0x29, 0x18, 0x56, 0xb3, 0x04, 0x10, 0xba, 0xe9, 0xb7, 0xd1,
  0xb7, 0xda, 0xe3, 0x37, 0xe1, 0xe2, 0x00, 0xe0, 0x9d, 0x3a, 0xfa, 0xc1,
  0xad, 0x0c, 0xd7, 0x62, 0xff, 0x03, 0xdf, 0xed, 0x1b, 0x1d, 0x0d, 0xd3,
  0x46, 0xb5, 0xac, 0x16, 0x47, 0x36, 0x3c, 0xf9, 0xbe, 0x46, 0xf5, 0x2a,
  0x33, 0x4d, 0x23, 0xbb, 0xcc, 0x25, 0xe5, 0xa9, 0xdb, 0x50, 0xb9, 0x63,
  0xf6, 0x22, 0x5a, 0x65, 0xad, 0xaf, 0x5c, 0xbf, 0xe7, 0x3f, 0x35, 0x48,
  0xaf, 0xaf, 0xc2, 0x01, 0x43, 0x3f, 0x30, 0x1d, 0xcd, 0xc3, 0xa7, 0x39,
  0x51, 0xad, 0x17, 0xe7, 0xdd, 0x58, 0xf5, 0xb8, 0x32, 0xa3, 0x34, 0x10,
  0xf3, 0x11, 0x4d, 0x15, 0x34, 0x2d, 0xe5, 0x23, 0xb5, 0xdd, 0xab, 0x0d,
  0xb7, 0x47, 0xf1, 0xa2, 0x02, 0x0d, 0xdc, 0xb9, 0x29, 0x17, 0x19, 0xc9,
  0xe8, 0xa0, 0x20, 0xbf, 0x00, 0xbf, 0x53, 0x1c, 0xe4, 0xf0, 0xf9, 0x02,
  0x40, 0xfb, 0x2f, 0xf2, 0x08, 0xda, 0xbe, 0x37, 0x1a, 0x0a, 0xaf, 0x2a,
  0xde, 0x10, 0x48, 0xa9, 0xde, 0xf5, 0xb6, 0xa5, 0xfd, 0xa3, 0xdc, 0x55,
  0x2b, 0xe5, 0xee, 0xb0, 0x1f, 0xfb, 0xbc, 0x42, 0x30, 0x2e, 0xa2, 0xa8,
  0xa6, 0x9e, 0xcf, 0xf7, 0xf6, 0xf9, 0x50, 0x3f, 0xa3, 0x1a, 0x0d, 0x10,
  0xf1, 0xdd, 0x54, 0x5b, 0x07, 0x22, 0xea, 0xc5, 0xcd, 0x10, 0xb7, 0xc2,
  0xeb, 0x51, 0xcd, 0xfb, 0xe6, 0x2a, 0xfb, 0xcd, 0xb0, 0x10, 0x1d, 0xf3,
  0xb9, 0x56, 0x12, 0x3c, 0xc6, 0x45, 0xf7, 0xf9, 0x1d, 0xf8, 0xa6, 0xd2,
  0xb8, 0x45, 0x08, 0x02, 0xe4, 0xa3, 0x0e, 0x3f, 0xcd, 0xce, 0xeb, 0xb1,
  0xbb, 0x06, 0x1c, 0xb2, 0xb1, 0xd6, 0xa6, 0xcf, 0xaf, 0x06, 0xbc, 0xb6,
  0xe1, 0xc5, 0xe7, 0x39, 0xe4, 0x22, 0x1d, 0x53, 0x5d, 0xc1, 0xd5, 0x3e,
  0x9f, 0x48, 0x33, 0xed, 0xbd, 0xcf, 0x54, 0x46, 0x4c, 0xba, 0xb5, 0xe0,
  0xf5, 0x1d, 0x05, 0xef, 0xde, 0x03, 0x1b, 0xc5, 0x60, 0x54, 0xad, 0x2b,
  0x9c, 0xc2, 0xc1, 0xab, 0xe0, 0xb6, 0x48, 0x3f, 0x2d, 0xc8, 0xdb, 0x58,
  0x3c, 0x3d, 0xd2, 0x2b, 0x26, 0x2b, 0xf3, 0xdc, 0x21, 0xee, 0x68, 0x54,
  0x1e, 0xbb, 0xa3, 0xd7, 0xca, 0xc8, 0x4d, 0xc6, 0xc9, 0xc0, 0x2f, 0xa4,
  0xf8, 0xf4, 0x2f, 0xcc, 0x69, 0xc8, 0xaa, 0xad, 0x40, 0x37, 0xd7, 0xbc,
  0xc2, 0x55, 0x31, 0x55, 0x41, 0x20, 0x0d, 0xe8, 0x47, 0xbe, 0x29, 0x19,
  0x0e, 0xd9, 0xd2, 0x4f, 0xd8, 0x22, 0xb6, 0x30, 0xb6, 0xd7, 0xc3, 0x60,
  0x05, 0xf5, 0xfd, 0x14, 0x4b, 0xf8, 0x26, 0xf5, 0x5f, 0x35, 0xfa, 0x39,
  0xcd, 0xec, 0x12, 0x13, 0x58, 0xc1, 0x4b, 0x08, 0x08, 0x05, 0x5c, 0x24,
  0x47, 0xdd, 0xfa, 0x03, 0x2f, 0xf2, 0xb1, 0x6b, 0x10, 0x44, 0x38, 0x2f,
  0xdd, 0xd3, 0xb1, 0x8b, 0xae, 0xec, 0xb8, 0xb4, 0x09, 0x44, 0x31, 0xb6,
  0x32, 0xa3, 0x1b, 0xdf, 0x08, 0x18, 0x2f, 0x3c, 0xcf, 0xae, 0x3e, 0x46,
  0xe8, 0xf9, 0x41, 0x3f, 0x61, 0xbd, 0x43, 0x1e, 0x33, 0xf8, 0x24, 0xaf,
  0xc0, 0x10, 0xea, 0x73, 0x6e, 0x04, 0xac, 0x99, 0x40, 0xfa, 0xed, 0x22,
  0xdf, 0x45, 0x58, 0x21, 0xa8, 0xb9, 0xce, 0x50, 0x47, 0xf2, 0xdc, 0x10,
  0x3d, 0x9d, 0xa6, 0xf6, 0xf1, 0xce, 0xf7, 0x01, 0x30, 0x64, 0x52, 0x2c,
  0xca, 0x59, 0xce, 0xdf, 0xd7, 0xff, 0x97, 0x3d, 0x5b, 0x29, 0x20, 0xbd,
  0xb0, 0xfb, 0xae, 0x19, 0x4d, 0x10, 0xc1, 0xc1, 0x3a, 0x01, 0x1f, 0xa6,
  0x24, 0x3d, 0xcc, 0x45, 0xd4, 0x4c, 0xf3, 0x2f, 0xb0, 0x63, 0x13, 0xde,
  0x18, 0xd1, 0x29, 0x66, 0xd2, 0xd9, 0x21, 0x39, 0xc5, 0xee, 0x41, 0xaf,
  0x18, 0x2c, 0x48, 0x42, 0xe0, 0x35, 0x03, 0x3a, 0xba, 0x5e, 0x41, 0xf6,
  0xa5, 0xf5, 0x24, 0xc0, 0xdb, 0xd7, 0xc5, 0xcd, 0xb2, 0xa2, 0x58, 0xb0,
  0xbd, 0x5b, 0xf1, 0x13, 0xa7, 0xcf, 0xb4, 0xa3, 0xc6, 0x0d, 0x02, 0x13,
  0x43, 0xae, 0x5a, 0x5e, 0x3b, 0x3b, 0xd5, 0xe5, 0x02, 0x3e, 0x1c, 0xb9,
  0x03, 0x2c, 0xca, 0xd5, 0x28, 0xac, 0x33, 0x3c, 0xed, 0xd1, 0x3a, 0x20,
  0xe9, 0x2e, 0xf2, 0xd2, 0xf2, 0x69, 0x0d, 0x5b, 0xfd, 0x32, 0xfc, 0x2b,
  0x44, 0x08, 0xc1, 0xec, 0xd6, 0xbd, 0xa7, 0xf5, 0x3e, 0x3b, 0x41, 0x19,
  0x1f, 0xbc, 0x56, 0xc3, 0x35, 0x43, 0xfa, 0xd7, 0x07, 0xbc, 0x0a, 0x0e,
  0x6f, 0xe2, 0x3b, 0xdc, 0xf6, 0xb5, 0xce, 0x5c, 0xd1, 0xbd, 0xe1, 0x48,
  0xa3, 0xfe, 0x28, 0x19, 0x1d, 0x4e, 0x4e, 0x5c, 0x27, 0xf7, 0x69, 0xd7,
  0x4e, 0x05, 0xc6, 0xed, 0x2a, 0xc5, 0xe0, 0x07, 0x11, 0xf7, 0x5c, 0x5a,
  0xb2, 0x4c, 0xd5, 0xe3, 0x1b, 0x01, 0x2b, 0x06, 0xcc, 0xe0, 0x40, 0x36,
  0xd9, 0x19, 0xbf, 0xad, 0x10, 0x64, 0x3c, 0x65, 0x6a, 0xaa, 0x21, 0xad,
  0xc7, 0xe7, 0xe0, 0xd1, 0xcd, 0xe5, 0x43, 0x6d, 0xee, 0xbf, 0xc9, 0x27,
  0x6b, 0x69, 0xee, 0x33, 0x45, 0x55, 0xd1, 0xbf, 0xae, 0x5e, 0x5f, 0xb6,
  0xdf, 0x1d, 0x52, 0xae, 0xff, 0x29, 0xf7, 0x5c, 0x01, 0x27, 0xc5, 0x36,
  0xdc, 0x28, 0xe3, 0x1d, 0xe5, 0xb8, 0x01, 0x0a, 0xc0, 0x6b, 0xcc, 0xd4,
  0xdf, 0x52, 0x3e, 0x5a, 0xd8, 0xf9, 0x55, 0x4c, 0xf8, 0x5c, 0x05, 0xf3,
  0xc1, 0xea, 0x09, 0xa1, 0xe4, 0xc5, 0xf3, 0xae, 0x32, 0xcd, 0x0e, 0xa4,
  0x07, 0x3b, 0x44, 0x22, 0xd7, 0x0e, 0xcf, 0x09, 0x43, 0x3a, 0xf3, 0xd2,
  0xb2, 0xa4, 0xd1, 0x23, 0xbf, 0x27, 0xf7, 0xaf, 0x16, 0x12, 0xa1, 0xf6,
  0xfb, 0xd6, 0x51, 0xbb, 0x08, 0x4e, 0xc9, 0xcd, 0xa5, 0x00, 0x20, 0x2f,
  0xc9, 0xef, 0x5a, 0xa5, 0x39, 0xf7, 0x42, 0x09, 0xa2, 0xec, 0xc2, 0xbf,
  0x0a, 0x4e, 0x0a, 0x57, 0xad, 0x5f, 0x48, 0xd7, 0xba, 0x56, 0xf1, 0x09,
  0x0f, 0x45, 0xa8, 0x39, 0x1b, 0x06, 0x3a, 0xf0, 0x5f, 0x58, 0xba, 0xe6,
  0xed, 0x51, 0x29, 0x9e, 0xbf, 0x08, 0x69, 0xf4, 0x1c, 0xc0, 0xe1, 0x10,
  0x64, 0x03, 0xfa, 0xc5, 0xb5, 0x29, 0xd4, 0x37, 0x59, 0x58, 0xc0, 0x32,
  0xcd, 0xca, 0x39, 0x14, 0xea, 0xc2, 0x52, 0x9e, 0x2b, 0xb4, 0xca, 0x04,
  0x14, 0x09, 0xd4, 0xf4, 0xf5, 0xb4, 0xfb, 0x04, 0xf2, 0x63, 0xc4, 0xd8,
  0x30, 0xa5, 0xaf, 0x25, 0x50, 0xc9, 0x1b, 0xb2, 0xf8, 0x5f, 0x09, 0x4a,
  0x1a, 0x25, 0x48, 0x1b, 0x06, 0x49, 0xce, 0x1e, 0x2b, 0x97, 0xdc, 0x17,
  0x2d, 0x12, 0xe6, 0xfe, 0xfd, 0x15, 0x5e, 0xdb, 0x44, 0xa0, 0x5b, 0xdf,
  0x10, 0x0a, 0x13, 0x41, 0xff, 0x2a, 0xc8, 0x0e, 0x25, 0x53, 0x23, 0xb3,
  0x46, 0x22, 0x45, 0xe0, 0xe0, 0xd0, 0x4d, 0x1c, 0x10, 0x48, 0xa6, 0x2d,
  0xc7, 0x3a, 0x2f, 0x23, 0x41, 0xbe, 0x4d, 0x9f, 0xc3, 0xf1, 0x22, 0x36,
  0x58, 0xe0, 0x24, 0xcc, 0xeb, 0x43, 0xb1, 0xe3, 0xd7, 0xc7, 0xd8, 0x1d,
  0xec, 0x61, 0xca, 0x47, 0x27, 0x03, 0x3a, 0xa5, 0xab, 0x26, 0x56, 0xf2,
  0xba, 0xc6, 0xe9, 0xee, 0xf2, 0xfe, 0x38, 0xea, 0x49, 0xa7, 0x1e, 0x54,
  0xb3, 0x97, 0xe2, 0xb7, 0x3a, 0x3f, 0xd4, 0xf8, 0xcf, 0xd9, 0xd9, 0x56,
  0xb4, 0xb9, 0xff, 0x10, 0x0a, 0x06, 0xc1, 0x36, 0xb2, 0xfc, 0xff, 0xff,
  0x04, 0x00, 0x00, 0x00, 0x00, 0x01, 0x00, 0x00, 0x84, 0xfe, 0xff, 0xff,
  0xdc, 0x00, 0x00, 0x00, 0x4d, 0x00, 0x00, 0x00, 0x09, 0xff, 0xff, 0xff,
  0xe3, 0x00, 0x00, 0x00, 0xb4, 0xfd, 0xff, 0xff, 0x5a, 0x01, 0x00, 0x00,
  0xe2, 0xfe, 0xff, 0xff, 0xf8, 0xff, 0xff, 0xff, 0xc3, 0x02, 0x00, 0x00,
  0xcd, 0x01, 0x00, 0x00, 0x09, 0xff, 0xff, 0xff, 0x47, 0x00, 0x00, 0x00,
  0x71, 0x01, 0x00, 0x00, 0x7b, 0x01, 0x00, 0x00, 0x24, 0x02, 0x00, 0x00,
  0xe2, 0xfe, 0xff, 0xff, 0xbd, 0x00, 0x00, 0x00, 0x6b, 0x00, 0x00, 0x00,
  0x08, 0x02, 0x00, 0x00, 0xf1, 0xfd, 0xff, 0xff, 0x8d, 0xff, 0xff, 0xff,
  0x56, 0xfe, 0xff, 0xff, 0x06, 0x00, 0x00, 0x00, 0x11, 0xff, 0xff, 0xff,
  0x68, 0x01, 0x00, 0x00, 0x01, 0x02, 0x00, 0x00, 0xc3, 0xfd, 0xff, 0xff,
  0x3c, 0x00, 0x00, 0x00, 0x91, 0x00, 0x00, 0x00, 0x06, 0xfe, 0xff, 0xff,
  0x3f, 0x01, 0x00, 0x00, 0xe9, 0x01, 0x00, 0x00, 0x16, 0x02, 0x00, 0x00,
  0xa4, 0xfe, 0xff, 0xff, 0xdf, 0x02, 0x00, 0x00, 0x93, 0x03, 0x00, 0x00,
  0xc1, 0x02, 0x00, 0x00, 0x32, 0x02, 0x00, 0x00, 0x57, 0xff, 0xff, 0xff,
  0x3d, 0x02, 0x00, 0x00, 0xa1, 0xfd, 0xff, 0xff, 0xa6, 0xfe, 0xff, 0xff,
  0x5f, 0x04, 0x00, 0x00, 0x17, 0x01, 0x00, 0x00, 0x6d, 0xff, 0xff, 0xff,
  0xad, 0x02, 0x00, 0x00, 0xab, 0xfe, 0xff, 0xff, 0x67, 0xff, 0xff, 0xff,
  0x88, 0x01, 0x00, 0x00, 0x00, 0x00, 0x00, 0x00, 0xfe, 0xfe, 0xff, 0xff,
  0x0b, 0xff, 0xff, 0xff, 0x64, 0x02, 0x00, 0x00, 0x20, 0x00, 0x00, 0x00,
  0x0b, 0x00, 0x00, 0x00, 0x19, 0x01, 0x00, 0x00, 0x4d, 0x02, 0x00, 0x00,
  0xf5, 0x00, 0x00, 0x00, 0x84, 0xff, 0xff, 0xff, 0x9a, 0x00, 0x00, 0x00,
  0xe1, 0x01, 0x00, 0x00, 0xbc, 0xff, 0xff, 0xff, 0xf8, 0x00, 0x00, 0x00,
  0xbe, 0xfd, 0xff, 0xff, 0x04, 0x00, 0x00, 0x00, 0x00, 0x01, 0x00, 0x00,
  0xd1, 0xd6, 0x56, 0x62, 0x95, 0xc4, 0x0c, 0xf7, 0xce, 0xee, 0x56, 0x4a,
  0x62, 0x8f, 0x9d, 0x26, 0xb2, 0x57, 0x8d, 0x3d, 0xb5, 0xf2, 0xa6, 0xd8,
  0xee, 0xd4, 0x8d, 0xe8, 0x1c, 0xd0, 0xd9, 0x0c, 0x32, 0x95, 0xf4, 0xb6,
  0xb1, 0x17, 0xb8, 0x27, 0xa5, 0xdd, 0x07, 0xe7, 0xe9, 0xba, 0xc7, 0x30,
  0x1e, 0xc1, 0x1f, 0x55, 0xbe, 0x90, 0xb2, 0x55, 0xc5, 0x87, 0x50, 0xd5,
  0x35, 0x9c, 0x2a, 0xc4, 0xd4, 0x2b, 0x9d, 0xea, 0xb6, 0x4e, 0x0a, 0x19,
  0x06, 0x13, 0x38, 0x5d, 0xd7, 0x32, 0x41, 0x2b, 0xd8, 0x50, 0xbd, 0xa2,
  0xe8, 0x56, 0x13, 0xfa, 0x6a, 0xa0, 0xec, 0xb7, 0x90, 0x15, 0xdf, 0x47,
  0x1b, 0xf4, 0x4a, 0xb5, 0xba, 0x0c, 0x01, 0xfd, 0xe4, 0xe1, 0xee, 0x93,
  0x25, 0x47, 0xde, 0x28, 0x17, 0x52, 0x29, 0xad, 0xf1, 0xfe, 0x5d, 0xb8,
  0x3f, 0x31, 0xfb, 0xf1, 0x40, 0x40, 0xc3, 0xc2, 0xa8, 0x01, 0x18, 0xdf,
  0x4d, 0xa8, 0xaf, 0xcd, 0xb0, 0x1e, 0x52, 0xb0, 0x0b, 0xb9, 0x41, 0x48,
  0xc5, 0xee, 0x1b, 0x22, 0xf1, 0x16, 0x36, 0xd4, 0xd9, 0x19, 0x44, 0x56,
  0xde, 0x48, 0xaf, 0xfa, 0xb9, 0x1d, 0xe9, 0x41, 0x0b, 0x9c, 0x05, 0x1e,
  0xd2, 0xbd, 0x25, 0xd6, 0x9f, 0x1f, 0x48, 0x1c, 0x22, 0x01, 0x36, 0xb8,
  0x0b, 0x4f, 0x1b, 0xc4, 0x9d, 0xd7, 0x4a, 0xaf, 0x25, 0xb5, 0x4e, 0xa2,
  0xbe, 0x51, 0xd2, 0xeb, 0xc2, 0xb9, 0xdf, 0xb8, 0x1b, 0x6e, 0xab, 0xa9,
  0x21, 0x4d, 0xa3, 0xae, 0xe5, 0x38, 0xb6, 0x28, 0xae, 0x36, 0xd3, 0x24,
  0xcd, 0x95, 0x62, 0xf9, 0x2c, 0xfb, 0xc6, 0xd5, 0x52, 0x62, 0xf5, 0x74,
  0x48, 0xa8, 0x5b, 0x67, 0x2b, 0x13, 0x17, 0x5d, 0x81, 0xb6, 0x66, 0x06,
  0xce, 0x66, 0xef, 0xb6, 0xe2, 0x19, 0x4e, 0xac, 0x3b, 0x18, 0xe6, 0xcc,
  0x5b, 0x1c, 0xbf, 0x2c, 0xca, 0xfe, 0xff, 0xff, 0x04, 0x00, 0x00, 0x00,
  0x10, 0x00, 0x00, 0x00, 0xd8, 0xff, 0xff, 0xff, 0xfe, 0xfd, 0xff, 0xff,
  0x14, 0x01, 0x00, 0x00, 0x46, 0x00, 0x00, 0x00, 0xe6, 0xfe, 0xff, 0xff,
  0x04, 0x00, 0x00, 0x00, 0x04, 0x00, 0x00, 0x00, 0x01, 0x00, 0x00, 0x00,
  0xf6, 0xfe, 0xff, 0xff, 0x04, 0x00, 0x00, 0x00, 0x0c, 0x00, 0x00, 0x00,
  0xff, 0xff, 0xff, 0xff, 0x1a, 0x00, 0x00, 0x00, 0x40, 0x00, 0x00, 0x00,
  0x0e, 0xff, 0xff, 0xff, 0x04, 0x00, 0x00, 0x00, 0x0c, 0x00, 0x00, 0x00,
  0xff, 0xff, 0xff, 0xff, 0x1c, 0x00, 0x00, 0x00, 0x20, 0x00, 0x00, 0x00,
  0x26, 0xff, 0xff, 0xff, 0x04, 0x00, 0x00, 0x00, 0x04, 0x00, 0x00, 0x00,
  0xfd, 0xff, 0xff, 0xff, 0xb4, 0xe1, 0xff, 0xff, 0xb8, 0xe1, 0xff, 0xff,
  0x0f, 0x00, 0x00, 0x00, 0x4d, 0x4c, 0x49, 0x52, 0x20, 0x43, 0x6f, 0x6e,
  0x76, 0x65, 0x72, 0x74, 0x65, 0x64, 0x2e, 0x00, 0x01, 0x00, 0x00, 0x00,
  0x14, 0x00, 0x00, 0x00, 0x00, 0x00, 0x0e, 0x00, 0x18, 0x00, 0x14, 0x00,
  0x10, 0x00, 0x0c, 0x00, 0x08, 0x00, 0x04, 0x00, 0x0e, 0x00, 0x00, 0x00,
  0x14, 0x00, 0x00, 0x00, 0x1c, 0x00, 0x00, 0x00, 0x2c, 0x03, 0x00, 0x00,
  0x30, 0x03, 0x00, 0x00, 0x34, 0x03, 0x00, 0x00, 0x04, 0x00, 0x00, 0x00,
  0x6d, 0x61, 0x69, 0x6e, 0x00, 0x00, 0x00, 0x00, 0x0e, 0x00, 0x00, 0x00,
  0xf4, 0x02, 0x00, 0x00, 0xb4, 0x02, 0x00, 0x00, 0x50, 0x02, 0x00, 0x00,
  0x1c, 0x02, 0x00, 0x00, 0xe8, 0x01, 0x00, 0x00, 0xc0, 0x01, 0x00, 0x00,
  0x80, 0x01, 0x00, 0x00, 0x38, 0x01, 0x00, 0x00, 0x10, 0x01, 0x00, 0x00,
  0xdc, 0x00, 0x00, 0x00, 0x98, 0x00, 0x00, 0x00, 0x60, 0x00, 0x00, 0x00,
  0x24, 0x00, 0x00, 0x00, 0x04, 0x00, 0x00, 0x00, 0x4e, 0xfd, 0xff, 0xff,
  0x08, 0x00, 0x00, 0x00, 0x0c, 0x00, 0x00, 0x00, 0x01, 0x00, 0x00, 0x00,
  0x1c, 0x00, 0x00, 0x00, 0x01, 0x00, 0x00, 0x00, 0x1b, 0x00, 0x00, 0x00,
  0xaa, 0xfd, 0xff, 0xff, 0x1c, 0x00, 0x00, 0x00, 0x00, 0x00, 0x00, 0x09,
  0x1c, 0x00, 0x00, 0x00, 0x20, 0x00, 0x00, 0x00, 0x08, 0x00, 0x00, 0x00,
  0x00, 0x00, 0x06, 0x00, 0x08, 0x00, 0x04, 0x00, 0x06, 0x00, 0x00, 0x00,
  0x00, 0x00, 0x80, 0x3f, 0x01, 0x00, 0x00, 0x00, 0x1b, 0x00, 0x00, 0x00,
  0x01, 0x00, 0x00, 0x00, 0x1a, 0x00, 0x00, 0x00, 0xe2, 0xfd, 0xff, 0xff,
  0x14, 0x00, 0x00, 0x00, 0x00, 0x00, 0x00, 0x08, 0x10, 0x00, 0x00, 0x00,
  0x14, 0x00, 0x00, 0x00, 0x07, 0x00, 0x00, 0x00, 0xb4, 0xe2, 0xff, 0xff,
  0x01, 0x00, 0x00, 0x00, 0x1a, 0x00, 0x00, 0x00, 0x03, 0x00, 0x00, 0x00,
  0x19, 0x00, 0x00, 0x00, 0x06, 0x00, 0x00, 0x00, 0x05, 0x00, 0x00, 0x00,
  0x16, 0xfe, 0xff, 0xff, 0x1c, 0x00, 0x00, 0x00, 0x00, 0x00, 0x00, 0x08,
  0x1c, 0x00, 0x00, 0x00, 0x20, 0x00, 0x00, 0x00, 0x07, 0x00, 0x00, 0x00,
  0x00, 0x00, 0x06, 0x00, 0x08, 0x00, 0x07, 0x00, 0x06, 0x00, 0x00, 0x00,
  0x00, 0x00, 0x00, 0x01, 0x01, 0x00, 0x00, 0x00, 0x19, 0x00, 0x00, 0x00,
  0x03, 0x00, 0x00, 0x00, 0x18, 0x00, 0x00, 0x00, 0x08, 0x00, 0x00, 0x00,
  0x07, 0x00, 0x00, 0x00, 0x56, 0xfe, 0xff, 0xff, 0x14, 0x00, 0x00, 0x00,
  0x00, 0x00, 0x00, 0x1b, 0x10, 0x00, 0x00, 0x00, 0x14, 0x00, 0x00, 0x00,
  0x06, 0x00, 0x00, 0x00, 0x28, 0xe3, 0xff, 0xff, 0x01, 0x00, 0x00, 0x00,
  0x18, 0x00, 0x00, 0x00, 0x02, 0x00, 0x00, 0x00, 0x17, 0x00, 0x00, 0x00,
  0x04, 0x00, 0x00, 0x00, 0x66, 0xff, 0xff, 0xff, 0x0c, 0x00, 0x00, 0x00,
  0x10, 0x00, 0x00, 0x00, 0x05, 0x00, 0x00, 0x00, 0x01, 0x00, 0x00, 0x00,
  0x17, 0x00, 0x00, 0x00, 0x02, 0x00, 0x00, 0x00, 0x16, 0x00, 0x00, 0x00,
  0x03, 0x00, 0x00, 0x00, 0xaa, 0xfe, 0xff, 0xff, 0x14, 0x00, 0x00, 0x00,
  0x00, 0x00, 0x00, 0x01, 0x20, 0x00, 0x00, 0x00, 0x24, 0x00, 0x00, 0x00,
  0x02, 0x00, 0x00, 0x00, 0xfc, 0xfe, 0xff, 0xff, 0x00, 0x00, 0x00, 0x01,
  0x01, 0x00, 0x00, 0x00, 0x01, 0x00, 0x00, 0x00, 0x00, 0x00, 0x00, 0x01,
  0x01, 0x00, 0x00, 0x00, 0x16, 0x00, 0x00, 0x00, 0x03, 0x00, 0x00, 0x00,
  0x15, 0x00, 0x00, 0x00, 0x0a, 0x00, 0x00, 0x00, 0x09, 0x00, 0x00, 0x00,
  0xee, 0xfe, 0xff, 0xff, 0x14, 0x00, 0x00, 0x00, 0x00, 0x00, 0x00, 0x34,
  0x10, 0x00, 0x00, 0x00, 0x14, 0x00, 0x00, 0x00, 0x01, 0x00, 0x00, 0x00,
  0xc0, 0xe3, 0xff, 0xff, 0x01, 0x00, 0x00, 0x00, 0x15, 0x00, 0x00, 0x00,
  0x02, 0x00, 0x00, 0x00, 0x14, 0x00, 0x00, 0x00, 0x01, 0x00, 0x00, 0x00,
  0x00, 0x00, 0x0a, 0x00, 0x10, 0x00, 0x0c, 0x00, 0x08, 0x00, 0x04, 0x00,
  0x0a, 0x00, 0x00, 0x00, 0x0c, 0x00, 0x00, 0x00, 0x10, 0x00, 0x00, 0x00,
  0x05, 0x00, 0x00, 0x00, 0x01, 0x00, 0x00, 0x00, 0x14, 0x00, 0x00, 0x00,
  0x02, 0x00, 0x00, 0x00, 0x13, 0x00, 0x00, 0x00, 0x02, 0x00, 0x00, 0x00,
  0x4e, 0xff, 0xff, 0xff, 0x14, 0x00, 0x00, 0x00, 0x00, 0x00, 0x00, 0x0b,
  0x10, 0x00, 0x00, 0x00, 0x14, 0x00, 0x00, 0x00, 0x04, 0x00, 0x00, 0x00,
  0x20, 0xe4, 0xff, 0xff, 0x01, 0x00, 0x00, 0x00, 0x13, 0x00, 0x00, 0x00,
  0x02, 0x00, 0x00, 0x00, 0x12, 0x00, 0x00, 0x00, 0x0b, 0x00, 0x00, 0x00,
  0x7e, 0xff, 0xff, 0xff, 0x14, 0x00, 0x00, 0x00, 0x00, 0x00, 0x00, 0x15,
  0x10, 0x00, 0x00, 0x00, 0x14, 0x00, 0x00, 0x00, 0x03, 0x00, 0x00, 0x00,
  0x50, 0xe4, 0xff, 0xff, 0x01, 0x00, 0x00, 0x00, 0x12, 0x00, 0x00, 0x00,
  0x02, 0x00, 0x00, 0x00, 0x11, 0x00, 0x00, 0x00, 0x0c, 0x00, 0x00, 0x00,
  0xae, 0xff, 0xff, 0xff, 0x20, 0x00, 0x00, 0x00, 0x00, 0x00, 0x00, 0x01,
  0x2c, 0x00, 0x00, 0x00, 0x30, 0x00, 0x00, 0x00, 0x02, 0x00, 0x00, 0x00,
  0x0c, 0x00, 0x14, 0x00, 0x13, 0x00, 0x0c, 0x00, 0x08, 0x00, 0x07, 0x00,
  0x0c, 0x00, 0x00, 0x00, 0x00, 0x00, 0x00, 0x01, 0x01, 0x00, 0x00, 0x00,
  0x01, 0x00, 0x00, 0x00, 0x00, 0x00, 0x00, 0x01, 0x01, 0x00, 0x00, 0x00,
  0x11, 0x00, 0x00, 0x00, 0x03, 0x00, 0x00, 0x00, 0x10, 0x00, 0x00, 0x00,
  0x0e, 0x00, 0x00, 0x00, 0x0d, 0x00, 0x00, 0x00, 0x00, 0x00, 0x0e, 0x00,
  0x18, 0x00, 0x14, 0x00, 0x10, 0x00, 0x0c, 0x00, 0x0b, 0x00, 0x04, 0x00,
  0x0e, 0x00, 0x00, 0x00, 0x14, 0x00, 0x00, 0x00, 0x00, 0x00, 0x00, 0x34,
  0x10, 0x00, 0x00, 0x00, 0x14, 0x00, 0x00, 0x00, 0x01, 0x00, 0x00, 0x00,
  0xe0, 0xe4, 0xff, 0xff, 0x01, 0x00, 0x00, 0x00, 0x10, 0x00, 0x00, 0x00,
  0x02, 0x00, 0x00, 0x00, 0x0f, 0x00, 0x00, 0x00, 0x01, 0x00, 0x00, 0x00,
  0x00, 0x00, 0x0a, 0x00, 0x0c, 0x00, 0x00, 0x00, 0x08, 0x00, 0x04, 0x00,
  0x0a, 0x00, 0x00, 0x00, 0x08, 0x00, 0x00, 0x00, 0x0c, 0x00, 0x00, 0x00,
  0x01, 0x00, 0x00, 0x00, 0x0f, 0x00, 0x00, 0x00, 0x01, 0x00, 0x00, 0x00,
  0x00, 0x00, 0x00, 0x00, 0x01, 0x00, 0x00, 0x00, 0x1c, 0x00, 0x00, 0x00,
  0x01, 0x00, 0x00, 0x00, 0x00, 0x00, 0x00, 0x00, 0x1d, 0x00, 0x00, 0x00,
  0x1c, 0x1b, 0x00, 0x00, 0xac, 0x1a, 0x00, 0x00, 0x40, 0x1a, 0x00, 0x00,
  0xec, 0x19, 0x00, 0x00, 0x84, 0x19, 0x00, 0x00, 0x08, 0x19, 0x00, 0x00,
  0x9c, 0x18, 0x00, 0x00, 0x28, 0x18, 0x00, 0x00, 0xbc, 0x17, 0x00, 0x00,
  0x50, 0x14, 0x00, 0x00, 0xe4, 0x10, 0x00, 0x00, 0x68, 0x10, 0x00, 0x00,
  0xec, 0x0f, 0x00, 0x00, 0x00, 0x0e, 0x00, 0x00, 0x14, 0x0c, 0x00, 0x00,
  0x9c, 0x0b, 0x00, 0x00, 0x04, 0x0b, 0x00, 0x00, 0x00, 0x0a, 0x00, 0x00,
  0xb4, 0x08, 0x00, 0x00, 0x10, 0x07, 0x00, 0x00, 0x70, 0x05, 0x00, 0x00,
  0xd8, 0x04, 0x00, 0x00, 0xc4, 0x03, 0x00, 0x00, 0xd4, 0x02, 0x00, 0x00,
  0x44, 0x02, 0x00, 0x00, 0x98, 0x01, 0x00, 0x00, 0xfc, 0x00, 0x00, 0x00,
  0x80, 0x00, 0x00, 0x00, 0x04, 0x00, 0x00, 0x00, 0x6e, 0xe5, 0xff, 0xff,
  0x00, 0x00, 0x00, 0x01, 0x18, 0x00, 0x00, 0x00, 0x20, 0x00, 0x00, 0x00,
  0x3c, 0x00, 0x00, 0x00, 0x1d, 0x00, 0x00, 0x00, 0x00, 0x00, 0x00, 0x03,
  0x50, 0x00, 0x00, 0x00, 0x02, 0x00, 0x00, 0x00, 0xff, 0xff, 0xff, 0xff,
  0x04, 0x00, 0x00, 0x00, 0x54, 0xe5, 0xff, 0xff, 0x08, 0x00, 0x00, 0x00,
  0x10, 0x00, 0x00, 0x00, 0x01, 0x00, 0x00, 0x00, 0x00, 0x00, 0x00, 0x00,
  0x00, 0x00, 0x00, 0x00, 0x01, 0x00, 0x00, 0x00, 0x00, 0x00, 0x80, 0x3b,
  0x19, 0x00, 0x00, 0x00, 0x53, 0x74, 0x61, 0x74, 0x65, 0x66, 0x75, 0x6c,
  0x50, 0x61, 0x72, 0x74, 0x69, 0x74, 0x69, 0x6f, 0x6e, 0x65, 0x64, 0x43,
  0x61, 0x6c, 0x6c, 0x3a, 0x30, 0x00, 0x00, 0x00, 0x02, 0x00, 0x00, 0x00,
  0x01, 0x00, 0x00, 0x00, 0x04, 0x00, 0x00, 0x00, 0xe6, 0xe5, 0xff, 0xff,
  0x00, 0x00, 0x00, 0x01, 0x18, 0x00, 0x00, 0x00, 0x20, 0x00, 0x00, 0x00,
  0x3c, 0x00, 0x00, 0x00, 0x1c, 0x00, 0x00, 0x00, 0x00, 0x00, 0x00, 0x09,
  0x50, 0x00, 0x00, 0x00, 0x02, 0x00, 0x00, 0x00, 0xff, 0xff, 0xff, 0xff,
  0x04, 0x00, 0x00, 0x00, 0xcc, 0xe5, 0xff, 0xff, 0x08, 0x00, 0x00, 0x00,
  0x10, 0x00, 0x00, 0x00, 0x01, 0x00, 0x00, 0x00, 0x80, 0xff, 0xff, 0xff,
  0xff, 0xff, 0xff, 0xff, 0x01, 0x00, 0x00, 0x00, 0x00, 0x00, 0x80, 0x3b,
  0x1a, 0x00, 0x00, 0x00, 0x53, 0x74, 0x61, 0x74, 0x65, 0x66, 0x75, 0x6c,
  0x50, 0x61, 0x72, 0x74, 0x69, 0x74, 0x69, 0x6f, 0x6e, 0x65, 0x64, 0x43,
  0x61, 0x6c, 0x6c, 0x3a, 0x30, 0x31, 0x00, 0x00, 0x02, 0x00, 0x00, 0x00,
  0x01, 0x00, 0x00, 0x00, 0x04, 0x00, 0x00, 0x00, 0x5e, 0xe6, 0xff, 0xff,
  0x00, 0x00, 0x00, 0x01, 0x18, 0x00, 0x00, 0x00, 0x20, 0x00, 0x00, 0x00,
  0x40, 0x00, 0x00, 0x00, 0x1b, 0x00, 0x00, 0x00, 0x00, 0x00, 0x00, 0x09,
  0x70, 0x00, 0x00, 0x00, 0x02, 0x00, 0x00, 0x00, 0xff, 0xff, 0xff, 0xff,
  0x04, 0x00, 0x00, 0x00, 0x44, 0xe6, 0xff, 0xff, 0x08, 0x00, 0x00, 0x00,
  0x14, 0x00, 0x00, 0x00, 0x01, 0x00, 0x00, 0x00, 0x33, 0x00, 0x00, 0x00,
  0x00, 0x00, 0x00, 0x00, 0x00, 0x00, 0x00, 0x00, 0x01, 0x00, 0x00, 0x00,
  0xa6, 0x92, 0x52, 0x3d, 0x34, 0x00, 0x00, 0x00, 0x73, 0x65, 0x71, 0x75,
  0x65, 0x6e, 0x74, 0x69, 0x61, 0x6c, 0x2f, 0x64, 0x65, 0x6e, 0x73, 0x65,
  0x5f, 0x31, 0x2f, 0x4d, 0x61, 0x74, 0x4d, 0x75, 0x6c, 0x3b, 0x73, 0x65,
  0x71, 0x75, 0x65, 0x6e, 0x74, 0x69, 0x61, 0x6c, 0x2f, 0x64, 0x65, 0x6e,
  0x73, 0x65, 0x5f, 0x31, 0x2f, 0x42, 0x69, 0x61, 0x73, 0x41, 0x64, 0x64,
  0x00, 0x00, 0x00, 0x00, 0x02, 0x00, 0x00, 0x00, 0x01, 0x00, 0x00, 0x00,
  0x04, 0x00, 0x00, 0x00, 0xf6, 0xe6, 0xff, 0xff, 0x00, 0x00, 0x00, 0x01,
  0x18, 0x00, 0x00, 0x00, 0x20, 0x00, 0x00, 0x00, 0x40, 0x00, 0x00, 0x00,
  0x1a, 0x00, 0x00, 0x00, 0x00, 0x00, 0x00, 0x09, 0x80, 0x00, 0x00, 0x00,
  0x02, 0x00, 0x00, 0x00, 0xff, 0xff, 0xff, 0xff, 0x40, 0x00, 0x00, 0x00,
  0xdc, 0xe6, 0xff, 0xff, 0x08, 0x00, 0x00, 0x00, 0x14, 0x00, 0x00, 0x00,
  0x01, 0x00, 0x00, 0x00, 0x80, 0xff, 0xff, 0xff, 0xff, 0xff, 0xff, 0xff,
  0x00, 0x00, 0x00, 0x00, 0x01, 0x00, 0x00, 0x00, 0xdc, 0x52, 0x78, 0x3c,
  0x46, 0x00, 0x00, 0x00, 0x73, 0x65, 0x71, 0x75, 0x65, 0x6e, 0x74, 0x69,
  0x61, 0x6c, 0x2f, 0x64, 0x65, 0x6e, 0x73, 0x65, 0x2f, 0x4d, 0x61, 0x74,
  0x4d, 0x75, 0x6c, 0x3b, 0x73, 0x65, 0x71, 0x75, 0x65, 0x6e, 0x74, 0x69,
  0x61, 0x6c, 0x2f, 0x64, 0x65, 0x6e, 0x73, 0x65, 0x2f, 0x52, 0x65, 0x6c,
  0x75, 0x3b, 0x73, 0x65, 0x71, 0x75, 0x65, 0x6e, 0x74, 0x69, 0x61, 0x6c,
  0x2f, 0x64, 0x65, 0x6e, 0x73, 0x65, 0x2f, 0x42, 0x69, 0x61, 0x73, 0x41,
  0x64, 0x64, 0x00, 0x00, 0x02, 0x00, 0x00, 0x00, 0x01, 0x00, 0x00, 0x00,
  0x40, 0x00, 0x00, 0x00, 0x9e, 0xe7, 0xff, 0xff, 0x00, 0x00, 0x00, 0x01,
  0x18, 0x00, 0x00, 0x00, 0x20, 0x00, 0x00, 0x00, 0x40, 0x00, 0x00, 0x00,
  0x19, 0x00, 0x00, 0x00, 0x00, 0x00, 0x00, 0x09, 0x64, 0x00, 0x00, 0x00,
  0x02, 0x00, 0x00, 0x00, 0xff, 0xff, 0xff, 0xff, 0x40, 0x00, 0x00, 0x00,
  0x84, 0xe7, 0xff, 0xff, 0x08, 0x00, 0x00, 0x00, 0x14, 0x00, 0x00, 0x00,
  0x01, 0x00, 0x00, 0x00, 0x80, 0xff, 0xff, 0xff, 0xff, 0xff, 0xff, 0xff,
  0x00, 0x00, 0x00, 0x00, 0x01, 0x00, 0x00, 0x00, 0x1f, 0x43, 0x88, 0x3c,
  0x28, 0x00, 0x00, 0x00, 0x73, 0x65, 0x71, 0x75, 0x65, 0x6e, 0x74, 0x69,
  0x61, 0x6c, 0x2f, 0x67, 0x6c, 0x6f, 0x62, 0x61, 0x6c, 0x5f, 0x61, 0x76,
  0x65, 0x72, 0x61, 0x67, 0x65, 0x5f, 0x70, 0x6f, 0x6f, 0x6c, 0x69, 0x6e,
  0x67, 0x31, 0x64, 0x2f, 0x4d, 0x65, 0x61, 0x6e, 0x00, 0x00, 0x00, 0x00,
  0x02, 0x00, 0x00, 0x00, 0x01, 0x00, 0x00, 0x00, 0x40, 0x00, 0x00, 0x00,
  0x2a, 0xe8, 0xff, 0xff, 0x00, 0x00, 0x00, 0x01, 0x18, 0x00, 0x00, 0x00,
  0x24, 0x00, 0x00, 0x00, 0x44, 0x00, 0x00, 0x00, 0x18, 0x00, 0x00, 0x00,
  0x00, 0x00, 0x00, 0x09, 0xc0, 0x00, 0x00, 0x00, 0x03, 0x00, 0x00, 0x00,
  0xff, 0xff, 0xff, 0xff, 0x1a, 0x00, 0x00, 0x00, 0x40, 0x00, 0x00, 0x00,
  0x14, 0xe8, 0xff, 0xff, 0x08, 0x00, 0x00, 0x00, 0x14, 0x00, 0x00, 0x00,
  0x01, 0x00, 0x00, 0x00, 0x80, 0xff, 0xff, 0xff, 0xff, 0xff, 0xff, 0xff,
  0x00, 0x00, 0x00, 0x00, 0x01, 0x00, 0x00, 0x00, 0x9e, 0xae, 0x9e, 0x3c,
  0x82, 0x00, 0x00, 0x00, 0x73, 0x65, 0x71, 0x75, 0x65, 0x6e, 0x74, 0x69,
  0x61, 0x6c, 0x2f, 0x63, 0x6f, 0x6e, 0x76, 0x31, 0x64, 0x5f, 0x31, 0x2f,
  0x52, 0x65, 0x6c, 0x75, 0x3b, 0x73, 0x65, 0x71, 0x75, 0x65, 0x6e, 0x74,
  0x69, 0x61, 0x6c, 0x2f, 0x63, 0x6f, 0x6e, 0x76, 0x31, 0x64, 0x5f, 0x31,
  0x2f, 0x42, 0x69, 0x61, 0x73, 0x41, 0x64, 0x64, 0x3b, 0x73, 0x65, 0x71,
  0x75, 0x65, 0x6e, 0x74, 0x69, 0x61, 0x6c, 0x2f, 0x63, 0x6f, 0x6e, 0x76,
  0x31, 0x64, 0x5f, 0x31, 0x2f, 0x43, 0x6f, 0x6e, 0x76, 0x31, 0x44, 0x2f,
  0x53, 0x71, 0x75, 0x65, 0x65, 0x7a, 0x65, 0x3b, 0x73, 0x65, 0x71, 0x75,
  0x65, 0x6e, 0x74, 0x69, 0x61, 0x6c, 0x2f, 0x63, 0x6f, 0x6e, 0x76, 0x31,
  0x64, 0x5f, 0x31, 0x2f, 0x42, 0x69, 0x61, 0x73, 0x41, 0x64, 0x64, 0x2f,
  0x52, 0x65, 0x61, 0x64, 0x56, 0x61, 0x72, 0x69, 0x61, 0x62, 0x6c, 0x65,
  0x4f, 0x70, 0x00, 0x00, 0x03, 0x00, 0x00, 0x00, 0x01, 0x00, 0x00, 0x00,
  0x1a, 0x00, 0x00, 0x00, 0x40, 0x00, 0x00, 0x00, 0x16, 0xe9, 0xff, 0xff,
  0x00, 0x00, 0x00, 0x01, 0x18, 0x00, 0x00, 0x00, 0x28, 0x00, 0x00, 0x00,
  0x48, 0x00, 0x00, 0x00, 0x17, 0x00, 0x00, 0x00, 0x00, 0x00, 0x00, 0x09,
  0xe0, 0x00, 0x00, 0x00, 0x04, 0x00, 0x00, 0x00, 0xff, 0xff, 0xff, 0xff,
  0x01, 0x00, 0x00, 0x00, 0x1a, 0x00, 0x00, 0x00, 0x40, 0x00, 0x00, 0x00,
  0x04, 0xe9, 0xff, 0xff, 0x08, 0x00, 0x00, 0x00, 0x14, 0x00, 0x00, 0x00,
  0x01, 0x00, 0x00, 0x00, 0x80, 0xff, 0xff, 0xff, 0xff, 0xff, 0xff, 0xff,
  0x00, 0x00, 0x00, 0x00, 0x01, 0x00, 0x00, 0x00, 0x9e, 0xae, 0x9e, 0x3c,
  0x9d, 0x00, 0x00, 0x00, 0x73, 0x65, 0x71, 0x75, 0x65, 0x6e, 0x74, 0x69,
  0x61, 0x6c, 0x2f, 0x63, 0x6f, 0x6e, 0x76, 0x31, 0x64, 0x5f, 0x31, 0x2f,
  0x52, 0x65, 0x6c, 0x75, 0x3b, 0x73, 0x65, 0x71, 0x75, 0x65, 0x6e, 0x74,
  0x69, 0x61, 0x6c, 0x2f, 0x63, 0x6f, 0x6e, 0x76, 0x31, 0x64, 0x5f, 0x31,
  0x2f, 0x42, 0x69, 0x61, 0x73, 0x41, 0x64, 0x64, 0x3b, 0x73, 0x65, 0x71,
  0x75, 0x65, 0x6e, 0x74, 0x69, 0x61, 0x6c, 0x2f, 0x63, 0x6f, 0x6e, 0x76,
  0x31, 0x64, 0x5f, 0x31, 0x2f, 0x43, 0x6f, 0x6e, 0x76, 0x31, 0x44, 0x2f,
  0x53, 0x71, 0x75, 0x65, 0x65, 0x7a, 0x65, 0x3b, 0x73, 0x65, 0x71, 0x75,
  0x65, 0x6e, 0x74, 0x69, 0x61, 0x6c, 0x2f, 0x63, 0x6f, 0x6e, 0x76, 0x31,
  0x64, 0x5f, 0x31, 0x2f, 0x42, 0x69, 0x61, 0x73, 0x41, 0x64, 0x64, 0x2f,
  0x52, 0x65, 0x61, 0x64, 0x56, 0x61, 0x72, 0x69, 0x61, 0x62, 0x6c, 0x65,
  0x4f, 0x70, 0x3b, 0x73, 0x65, 0x71, 0x75, 0x65, 0x6e, 0x74, 0x69, 0x61,
  0x6c, 0x2f, 0x63, 0x6f, 0x6e, 0x76, 0x31, 0x64, 0x5f, 0x31, 0x2f, 0x43,
  0x6f, 0x6e, 0x76, 0x31, 0x44, 0x00, 0x00, 0x00, 0x04, 0x00, 0x00, 0x00,
  0x01, 0x00, 0x00, 0x00, 0x01, 0x00, 0x00, 0x00, 0x1a, 0x00, 0x00, 0x00,
  0x40, 0x00, 0x00, 0x00, 0x26, 0xea, 0xff, 0xff, 0x00, 0x00, 0x00, 0x01,
  0x18, 0x00, 0x00, 0x00, 0x28, 0x00, 0x00, 0x00, 0x44, 0x00, 0x00, 0x00,
  0x16, 0x00, 0x00, 0x00, 0x00, 0x00, 0x00, 0x09, 0x64, 0x00, 0x00, 0x00,
  0x04, 0x00, 0x00, 0x00, 0xff, 0xff, 0xff, 0xff, 0x01, 0x00, 0x00, 0x00,
  0x1c, 0x00, 0x00, 0x00, 0x20, 0x00, 0x00, 0x00, 0x14, 0xea, 0xff, 0xff,
  0x08, 0x00, 0x00, 0x00, 0x10, 0x00, 0x00, 0x00, 0x01, 0x00, 0x00, 0x00,
  0x99, 0xff, 0xff, 0xff, 0xff, 0xff, 0xff, 0xff, 0x01, 0x00, 0x00, 0x00,
  0x7f, 0x47, 0xf8, 0x3c, 0x25, 0x00, 0x00, 0x00, 0x73, 0x65, 0x71, 0x75,
  0x65, 0x6e, 0x74, 0x69, 0x61, 0x6c, 0x2f, 0x63, 0x6f, 0x6e, 0x76, 0x31,
  0x64, 0x5f, 0x31, 0x2f, 0x43, 0x6f, 0x6e, 0x76, 0x31, 0x44, 0x2f, 0x45,
  0x78, 0x70, 0x61, 0x6e, 0x64, 0x44, 0x69, 0x6d, 0x73, 0x00, 0x00, 0x00,
  0x04, 0x00, 0x00, 0x00, 0x01, 0x00, 0x00, 0x00, 0x01, 0x00, 0x00, 0x00,
  0x1c, 0x00, 0x00, 0x00, 0x20, 0x00, 0x00, 0x00, 0xba, 0xea, 0xff, 0xff,
  0x00, 0x00, 0x00, 0x01, 0x18, 0x00, 0x00, 0x00, 0x24, 0x00, 0x00, 0x00,
  0x44, 0x00, 0x00, 0x00, 0x15, 0x00, 0x00, 0x00, 0x00, 0x00, 0x00, 0x09,
  0x70, 0x01, 0x00, 0x00, 0x03, 0x00, 0x00, 0x00, 0xff, 0xff, 0xff, 0xff,
  0x1c, 0x00, 0x00, 0x00, 0x20, 0x00, 0x00, 0x00, 0xa4, 0xea, 0xff, 0xff,
  0x08, 0x00, 0x00, 0x00, 0x14, 0x00, 0x00, 0x00, 0x01, 0x00, 0x00, 0x00,
  0x99, 0xff, 0xff, 0xff, 0xff, 0xff, 0xff, 0xff, 0x00, 0x00, 0x00, 0x00,
  0x01, 0x00, 0x00, 0x00, 0x7f, 0x47, 0xf8, 0x3c, 0x33, 0x01, 0x00, 0x00,
  0x73, 0x65, 0x71, 0x75, 0x65, 0x6e, 0x74, 0x69, 0x61, 0x6c, 0x2f, 0x62,
  0x61, 0x74, 0x63, 0x68, 0x5f, 0x6e, 0x6f, 0x72, 0x6d, 0x61, 0x6c, 0x69,
  0x7a, 0x61, 0x74, 0x69, 0x6f, 0x6e, 0x2f, 0x62, 0x61, 0x74, 0x63, 0x68,
  0x6e, 0x6f, 0x72, 0x6d, 0x2f, 0x61, 0x64, 0x64, 0x5f, 0x31, 0x3b, 0x73,
  0x65, 0x71, 0x75, 0x65, 0x6e, 0x74, 0x69, 0x61, 0x6c, 0x2f, 0x63, 0x6f,
  0x6e, 0x76, 0x31, 0x64, 0x2f, 0x43, 0x6f, 0x6e, 0x76, 0x31, 0x44, 0x2f,
  0x53, 0x71, 0x75, 0x65, 0x65, 0x7a, 0x65, 0x3b, 0x73, 0x65, 0x71, 0x75,
  0x65, 0x6e, 0x74, 0x69, 0x61, 0x6c, 0x2f, 0x62, 0x61, 0x74, 0x63, 0x68,
  0x5f, 0x6e, 0x6f, 0x72, 0x6d, 0x61, 0x6c, 0x69, 0x7a, 0x61, 0x74, 0x69,
  0x6f, 0x6e, 0x2f, 0x62, 0x61, 0x74, 0x63, 0x68, 0x6e, 0x6f, 0x72, 0x6d,
  0x2f, 0x6d, 0x75, 0x6c, 0x5f, 0x31, 0x3b, 0x73, 0x65, 0x71, 0x75, 0x65,
  0x6e, 0x74, 0x69, 0x61, 0x6c, 0x2f, 0x63, 0x6f, 0x6e, 0x76, 0x31, 0x64,
  0x2f, 0x52, 0x65, 0x6c, 0x75, 0x3b, 0x73, 0x65, 0x71, 0x75, 0x65, 0x6e,
  0x74, 0x69, 0x61, 0x6c, 0x2f, 0x63, 0x6f, 0x6e, 0x76, 0x31, 0x64, 0x2f,
  0x42, 0x69, 0x61, 0x73, 0x41, 0x64, 0x64, 0x3b, 0x73, 0x65, 0x71, 0x75,
  0x65, 0x6e, 0x74, 0x69, 0x61, 0x6c, 0x2f, 0x63, 0x6f, 0x6e, 0x76, 0x31,
  0x64, 0x2f, 0x42, 0x69, 0x61, 0x73, 0x41, 0x64, 0x64, 0x2f, 0x52, 0x65,
  0x61, 0x64, 0x56, 0x61, 0x72, 0x69, 0x61, 0x62, 0x6c, 0x65, 0x4f, 0x70,
  0x3b, 0x73, 0x65, 0x71, 0x75, 0x65, 0x6e, 0x74, 0x69, 0x61, 0x6c, 0x2f,
  0x62, 0x61, 0x74, 0x63, 0x68, 0x5f, 0x6e, 0x6f, 0x72, 0x6d, 0x61, 0x6c,
  0x69, 0x7a, 0x61, 0x74, 0x69, 0x6f, 0x6e, 0x2f, 0x62, 0x61, 0x74, 0x63,
  0x68, 0x6e, 0x6f, 0x72, 0x6d, 0x2f, 0x6d, 0x75, 0x6c, 0x3b, 0x73, 0x65,
  0x71, 0x75, 0x65, 0x6e, 0x74, 0x69, 0x61, 0x6c, 0x2f, 0x62, 0x61, 0x74,
  0x63, 0x68, 0x5f, 0x6e, 0x6f, 0x72, 0x6d, 0x61, 0x6c, 0x69, 0x7a, 0x61,
  0x74, 0x69, 0x6f, 0x6e, 0x2f, 0x62, 0x61, 0x74, 0x63, 0x68, 0x6e, 0x6f,
  0x72, 0x6d, 0x2f, 0x73, 0x75, 0x62, 0x31, 0x00, 0x03, 0x00, 0x00, 0x00,
  0x01, 0x00, 0x00, 0x00, 0x1c, 0x00, 0x00, 0x00, 0x20, 0x00, 0x00, 0x00,
  0x56, 0xec, 0xff, 0xff, 0x00, 0x00, 0x00, 0x01, 0x18, 0x00, 0x00, 0x00,
  0x28, 0x00, 0x00, 0x00, 0x44, 0x00, 0x00, 0x00, 0x14, 0x00, 0x00, 0x00,
  0x00, 0x00, 0x00, 0x09, 0x70, 0x01, 0x00, 0x00, 0x04, 0x00, 0x00, 0x00,
  0xff, 0xff, 0xff, 0xff, 0x01, 0x00, 0x00, 0x00, 0x1c, 0x00, 0x00, 0x00,
  0x20, 0x00, 0x00, 0x00, 0x44, 0xec, 0xff, 0xff, 0x08, 0x00, 0x00, 0x00,
  0x10, 0x00, 0x00, 0x00, 0x01, 0x00, 0x00, 0x00, 0x99, 0xff, 0xff, 0xff,
  0xff, 0xff, 0xff, 0xff, 0x01, 0x00, 0x00, 0x00, 0x7f, 0x47, 0xf8, 0x3c,
  0x32, 0x01, 0x00, 0x00, 0x73, 0x65, 0x71, 0x75, 0x65, 0x6e, 0x74, 0x69,
  0x61, 0x6c, 0x2f, 0x62, 0x61, 0x74, 0x63, 0x68, 0x5f, 0x6e, 0x6f, 0x72,
  0x6d, 0x61, 0x6c, 0x69, 0x7a, 0x61, 0x74, 0x69, 0x6f, 0x6e, 0x2f, 0x62,
  0x61, 0x74, 0x63, 0x68, 0x6e, 0x6f, 0x72, 0x6d, 0x2f, 0x61, 0x64, 0x64,
  0x5f, 0x31, 0x3b, 0x73, 0x65, 0x71, 0x75, 0x65, 0x6e, 0x74, 0x69, 0x61,
  0x6c, 0x2f, 0x63, 0x6f, 0x6e, 0x76, 0x31, 0x64, 0x2f, 0x43, 0x6f, 0x6e,
  0x76, 0x31, 0x44, 0x2f, 0x53, 0x71, 0x75, 0x65, 0x65, 0x7a, 0x65, 0x3b,
  0x73, 0x65, 0x71, 0x75, 0x65, 0x6e, 0x74, 0x69, 0x61, 0x6c, 0x2f, 0x62,
  0x61, 0x74, 0x63, 0x68, 0x5f, 0x6e, 0x6f, 0x72, 0x6d, 0x61, 0x6c, 0x69,
  0x7a, 0x61, 0x74, 0x69, 0x6f, 0x6e, 0x2f, 0x62, 0x61, 0x74, 0x63, 0x68,
  0x6e, 0x6f, 0x72, 0x6d, 0x2f, 0x6d, 0x75, 0x6c, 0x5f, 0x31, 0x3b, 0x73,
  0x65, 0x71, 0x75, 0x65, 0x6e, 0x74, 0x69, 0x61, 0x6c, 0x2f, 0x63, 0x6f,
  0x6e, 0x76, 0x31, 0x64, 0x2f, 0x52, 0x65, 0x6c, 0x75, 0x3b, 0x73, 0x65,
  0x71, 0x75, 0x65, 0x6e, 0x74, 0x69, 0x61, 0x6c, 0x2f, 0x63, 0x6f, 0x6e,
  0x76, 0x31, 0x64, 0x2f, 0x42, 0x69, 0x61, 0x73, 0x41, 0x64, 0x64, 0x3b,
  0x73, 0x65, 0x71, 0x75, 0x65, 0x6e, 0x74, 0x69, 0x61, 0x6c, 0x2f, 0x63,
  0x6f, 0x6e, 0x76, 0x31, 0x64, 0x2f, 0x42, 0x69, 0x61, 0x73, 0x41, 0x64,
  0x64, 0x2f, 0x52, 0x65, 0x61, 0x64, 0x56, 0x61, 0x72, 0x69, 0x61, 0x62,
  0x6c, 0x65, 0x4f, 0x70, 0x3b, 0x73, 0x65, 0x71, 0x75, 0x65, 0x6e, 0x74,
  0x69, 0x61, 0x6c, 0x2f, 0x62, 0x61, 0x74, 0x63, 0x68, 0x5f, 0x6e, 0x6f,
  0x72, 0x6d, 0x61, 0x6c, 0x69, 0x7a, 0x61, 0x74, 0x69, 0x6f, 0x6e, 0x2f,
  0x62, 0x61, 0x74, 0x63, 0x68, 0x6e, 0x6f, 0x72, 0x6d, 0x2f, 0x6d, 0x75,
  0x6c, 0x3b, 0x73, 0x65, 0x71, 0x75, 0x65, 0x6e, 0x74, 0x69, 0x61, 0x6c,
  0x2f, 0x62, 0x61, 0x74, 0x63, 0x68, 0x5f, 0x6e, 0x6f, 0x72, 0x6d, 0x61,
  0x6c, 0x69, 0x7a, 0x61, 0x74, 0x69, 0x6f, 0x6e, 0x2f, 0x62, 0x61, 0x74,
  0x63, 0x68, 0x6e, 0x6f, 0x72, 0x6d, 0x2f, 0x73, 0x75, 0x62, 0x00, 0x00,
  0x04, 0x00, 0x00, 0x00, 0x01, 0x00, 0x00, 0x00, 0x01, 0x00, 0x00, 0x00,
  0x1c, 0x00, 0x00, 0x00, 0x20, 0x00, 0x00, 0x00, 0xf6, 0xed, 0xff, 0xff,
  0x00, 0x00, 0x00, 0x01, 0x18, 0x00, 0x00, 0x00, 0x28, 0x00, 0x00, 0x00,
  0x48, 0x00, 0x00, 0x00, 0x13, 0x00, 0x00, 0x00, 0x00, 0x00, 0x00, 0x09,
  0x18, 0x01, 0x00, 0x00, 0x04, 0x00, 0x00, 0x00, 0xff, 0xff, 0xff, 0xff,
  0x01, 0x00, 0x00, 0x00, 0x1c, 0x00, 0x00, 0x00, 0x20, 0x00, 0x00, 0x00,
  0xe4, 0xed, 0xff, 0xff, 0x08, 0x00, 0x00, 0x00, 0x14, 0x00, 0x00, 0x00,
  0x01, 0x00, 0x00, 0x00, 0x80, 0xff, 0xff, 0xff, 0xff, 0xff, 0xff, 0xff,
  0x00, 0x00, 0x00, 0x00, 0x01, 0x00, 0x00, 0x00, 0xbf, 0x30, 0xe4, 0x3c,
  0xd6, 0x00, 0x00, 0x00, 0x73, 0x65, 0x71, 0x75, 0x65, 0x6e, 0x74, 0x69,
  0x61, 0x6c, 0x2f, 0x62, 0x61, 0x74, 0x63, 0x68, 0x5f, 0x6e, 0x6f, 0x72,
  0x6d, 0x61, 0x6c, 0x69, 0x7a, 0x61, 0x74, 0x69, 0x6f, 0x6e, 0x2f, 0x62,
  0x61, 0x74, 0x63, 0x68, 0x6e, 0x6f, 0x72, 0x6d, 0x2f, 0x6d, 0x75, 0x6c,
  0x5f, 0x31, 0x3b, 0x73, 0x65, 0x71, 0x75, 0x65, 0x6e, 0x74, 0x69, 0x61,
  0x6c, 0x2f, 0x63, 0x6f, 0x6e, 0x76, 0x31, 0x64, 0x2f, 0x43, 0x6f, 0x6e,
  0x76, 0x31, 0x44, 0x2f, 0x53, 0x71, 0x75, 0x65, 0x65, 0x7a, 0x65, 0x3b,
  0x73, 0x65, 0x71, 0x75, 0x65, 0x6e, 0x74, 0x69, 0x61, 0x6c, 0x2f, 0x63,
  0x6f, 0x6e, 0x76, 0x31, 0x64, 0x2f, 0x52, 0x65, 0x6c, 0x75, 0x3b, 0x73,
  0x65, 0x71, 0x75, 0x65, 0x6e, 0x74, 0x69, 0x61, 0x6c, 0x2f, 0x63, 0x6f,
  0x6e, 0x76, 0x31, 0x64, 0x2f, 0x42, 0x69, 0x61, 0x73, 0x41, 0x64, 0x64,
  0x3b, 0x73, 0x65, 0x71, 0x75, 0x65, 0x6e, 0x74, 0x69, 0x61, 0x6c, 0x2f,
  0x63, 0x6f, 0x6e, 0x76, 0x31, 0x64, 0x2f, 0x42, 0x69, 0x61, 0x73, 0x41,
  0x64, 0x64, 0x2f, 0x52, 0x65, 0x61, 0x64, 0x56, 0x61, 0x72, 0x69, 0x61,
  0x62, 0x6c, 0x65, 0x4f, 0x70, 0x3b, 0x73, 0x65, 0x71, 0x75, 0x65, 0x6e,
  0x74, 0x69, 0x61, 0x6c, 0x2f, 0x62, 0x61, 0x74, 0x63, 0x68, 0x5f, 0x6e,
  0x6f, 0x72, 0x6d, 0x61, 0x6c, 0x69, 0x7a, 0x61, 0x74, 0x69, 0x6f, 0x6e,
  0x2f, 0x62, 0x61, 0x74, 0x63, 0x68, 0x6e, 0x6f, 0x72, 0x6d, 0x2f, 0x6d,
  0x75, 0x6c, 0x00, 0x00, 0x04, 0x00, 0x00, 0x00, 0x01, 0x00, 0x00, 0x00,
  0x01, 0x00, 0x00, 0x00, 0x1c, 0x00, 0x00, 0x00, 0x20, 0x00, 0x00, 0x00,
  0x3e, 0xef, 0xff, 0xff, 0x00, 0x00, 0x00, 0x01, 0x18, 0x00, 0x00, 0x00,
  0x28, 0x00, 0x00, 0x00, 0x44, 0x00, 0x00, 0x00, 0x12, 0x00, 0x00, 0x00,
  0x00, 0x00, 0x00, 0x09, 0xd0, 0x00, 0x00, 0x00, 0x04, 0x00, 0x00, 0x00,
  0xff, 0xff, 0xff, 0xff, 0x01, 0x00, 0x00, 0x00, 0x1c, 0x00, 0x00, 0x00,
  0x20, 0x00, 0x00, 0x00, 0x2c, 0xef, 0xff, 0xff, 0x08, 0x00, 0x00, 0x00,
  0x10, 0x00, 0x00, 0x00, 0x01, 0x00, 0x00, 0x00, 0x80, 0xff, 0xff, 0xff,
  0xff, 0xff, 0xff, 0xff, 0x01, 0x00, 0x00, 0x00, 0x36, 0xa2, 0xdf, 0x3c,
  0x93, 0x00, 0x00, 0x00, 0x73, 0x65, 0x71, 0x75, 0x65, 0x6e, 0x74, 0x69,
  0x61, 0x6c, 0x2f, 0x63, 0x6f, 0x6e, 0x76, 0x31, 0x64, 0x2f, 0x52, 0x65,
  0x6c, 0x75, 0x3b, 0x73, 0x65, 0x71, 0x75, 0x65, 0x6e, 0x74, 0x69, 0x61,
  0x6c, 0x2f, 0x63, 0x6f, 0x6e, 0x76, 0x31, 0x64, 0x2f, 0x42, 0x69, 0x61,
  0x73, 0x41, 0x64, 0x64, 0x3b, 0x73, 0x65, 0x71, 0x75, 0x65, 0x6e, 0x74,
  0x69, 0x61, 0x6c, 0x2f, 0x63, 0x6f, 0x6e, 0x76, 0x31, 0x64, 0x2f, 0x43,
  0x6f, 0x6e, 0x76, 0x31, 0x44, 0x2f, 0x53, 0x71, 0x75, 0x65, 0x65, 0x7a,
  0x65, 0x3b, 0x73, 0x65, 0x71, 0x75, 0x65, 0x6e, 0x74, 0x69, 0x61, 0x6c,
  0x2f, 0x63, 0x6f, 0x6e, 0x76, 0x31, 0x64, 0x2f, 0x42, 0x69, 0x61, 0x73,
  0x41, 0x64, 0x64, 0x2f, 0x52, 0x65, 0x61, 0x64, 0x56, 0x61, 0x72, 0x69,
  0x61, 0x62, 0x6c, 0x65, 0x4f, 0x70, 0x3b, 0x73, 0x65, 0x71, 0x75, 0x65,
  0x6e, 0x74, 0x69, 0x61, 0x6c, 0x2f, 0x63, 0x6f, 0x6e, 0x76, 0x31, 0x64,
  0x2f, 0x43, 0x6f, 0x6e, 0x76, 0x31, 0x44, 0x00, 0x04, 0x00, 0x00, 0x00,
  0x01, 0x00, 0x00, 0x00, 0x01, 0x00, 0x00, 0x00, 0x1c, 0x00, 0x00, 0x00,
  0x20, 0x00, 0x00, 0x00, 0x3e, 0xf0, 0xff, 0xff, 0x00, 0x00, 0x00, 0x01,
  0x18, 0x00, 0x00, 0x00, 0x28, 0x00, 0x00, 0x00, 0x48, 0x00, 0x00, 0x00,
  0x11, 0x00, 0x00, 0x00, 0x00, 0x00, 0x00, 0x09, 0x64, 0x00, 0x00, 0x00,
  0x04, 0x00, 0x00, 0x00, 0xff, 0xff, 0xff, 0xff, 0x01, 0x00, 0x00, 0x00,
  0x1e, 0x00, 0x00, 0x00, 0x01, 0x00, 0x00, 0x00, 0x2c, 0xf0, 0xff, 0xff,
  0x08, 0x00, 0x00, 0x00, 0x14, 0x00, 0x00, 0x00, 0x01, 0x00, 0x00, 0x00,
  0x80, 0xff, 0xff, 0xff, 0xff, 0xff, 0xff, 0xff, 0x00, 0x00, 0x00, 0x00,
  0x01, 0x00, 0x00, 0x00, 0x5c, 0x85, 0x61, 0x3d, 0x23, 0x00, 0x00, 0x00,
  0x73, 0x65, 0x71, 0x75, 0x65, 0x6e, 0x74, 0x69, 0x61, 0x6c, 0x2f, 0x63,
  0x6f, 0x6e, 0x76, 0x31, 0x64, 0x2f, 0x43, 0x6f, 0x6e, 0x76, 0x31, 0x44,
  0x2f, 0x45, 0x78, 0x70, 0x61, 0x6e, 0x64, 0x44, 0x69, 0x6d, 0x73, 0x00,
  0x04, 0x00, 0x00, 0x00, 0x01, 0x00, 0x00, 0x00, 0x01, 0x00, 0x00, 0x00,
  0x1e, 0x00, 0x00, 0x00, 0x01, 0x00, 0x00, 0x00, 0xd2, 0xf0, 0xff, 0xff,
  0x00, 0x00, 0x00, 0x01, 0x18, 0x00, 0x00, 0x00, 0x24, 0x00, 0x00, 0x00,
  0x40, 0x00, 0x00, 0x00, 0x10, 0x00, 0x00, 0x00, 0x00, 0x00, 0x00, 0x09,
  0x48, 0x00, 0x00, 0x00, 0x03, 0x00, 0x00, 0x00, 0xff, 0xff, 0xff, 0xff,
  0x1e, 0x00, 0x00, 0x00, 0x01, 0x00, 0x00, 0x00, 0xbc, 0xf0, 0xff, 0xff,
  0x08, 0x00, 0x00, 0x00, 0x10, 0x00, 0x00, 0x00, 0x01, 0x00, 0x00, 0x00,
  0x80, 0xff, 0xff, 0xff, 0xff, 0xff, 0xff, 0xff, 0x01, 0x00, 0x00, 0x00,
  0x5c, 0x85, 0x61, 0x3d, 0x0c, 0x00, 0x00, 0x00, 0x74, 0x66, 0x6c, 0x2e,
  0x71, 0x75, 0x61, 0x6e, 0x74, 0x69, 0x7a, 0x65, 0x00, 0x00, 0x00, 0x00,
  0x03, 0x00, 0x00, 0x00, 0x01, 0x00, 0x00, 0x00, 0x1e, 0x00, 0x00, 0x00,
  0x01, 0x00, 0x00, 0x00, 0xb2, 0xf1, 0xff, 0xff, 0x00, 0x00, 0x00, 0x01,
  0x14, 0x00, 0x00, 0x00, 0xa8, 0x01, 0x00, 0x00, 0x0f, 0x00, 0x00, 0x00,
  0x00, 0x00, 0x00, 0x09, 0xbc, 0x01, 0x00, 0x00, 0x1c, 0xf1, 0xff, 0xff,
  0x08, 0x00, 0x00, 0x00, 0x0c, 0x01, 0x00, 0x00, 0x20, 0x00, 0x00, 0x00,
  0x00, 0x00, 0x00, 0x00, 0x00, 0x00, 0x00, 0x00, 0x00, 0x00, 0x00, 0x00,
